{
  "version": "1.0",
  "truncation": null,
  "padding": null,
  "added_tokens": [
    {
      "id": 0,
      "content": "<pad>",
      "single_word": false,
      "lstrip": false,
      "rstrip": false,
      "normalized": false,
      "special": true
    },
    {
      "id": 1,
      "content": "<bos>",
      "single_word": false,
      "lstrip": false,
      "rstrip": false,
      "normalized": false,
      "special": true
    },
    {
      "id": 2,
      "content": "<eos>",
      "single_word": false,
      "lstrip": false,
      "rstrip": false,
      "normalized": false,
      "special": true
    },
    {
      "id": 3,
      "content": "<system>",
      "single_word": false,
      "lstrip": false,
      "rstrip": false,
      "normalized": false,
      "special": true
    },
    {
      "id": 4,
      "content": "<user>",
      "single_word": false,
      "lstrip": false,
      "rstrip": false,
      "normalized": false,
      "special": true
    },
    {
      "id": 5,
      "content": "<assistant>",
      "single_word": false,
      "lstrip": false,
      "rstrip": false,
      "normalized": false,
      "special": true
    },
    {
      "id": 6,
      "content": "<unk>",
      "single_word": false,
      "lstrip": false,
      "rstrip": false,
      "normalized": false,
      "special": true
    }
  ],
  "normalizer": null,
  "pre_tokenizer": {
    "type": "ByteLevel",
    "add_prefix_space": false,
    "trim_offsets": true,
    "use_regex": true
  },
  "post_processor": null,
  "decoder": {
    "type": "ByteLevel",
    "add_prefix_space": true,
    "trim_offsets": true,
    "use_regex": true
  },
  "model": {
    "type": "BPE",
    "dropout": null,
    "unk_token": "<unk>",
    "continuing_subword_prefix": null,
    "end_of_word_suffix": null,
    "fuse_unk": false,
    "byte_fallback": false,
    "ignore_merges": false,
    "vocab": {
      "<pad>": 0,
      "<bos>": 1,
      "<eos>": 2,
      "<system>": 3,
      "<user>": 4,
      "<assistant>": 5,
      "<unk>": 6,
      "!": 7,
      "\"": 8,
      "#": 9,
      "$": 10,
      "%": 11,
      "&": 12,
      "'": 13,
      "(": 14,
      ")": 15,
      "*": 16,
      "+": 17,
      ",": 18,
      "-": 19,
      ".": 20,
      "/": 21,
      "0": 22,
      "1": 23,
      "2": 24,
      "3": 25,
      "4": 26,
      "5": 27,
      "6": 28,
      "7": 29,
      "8": 30,
      "9": 31,
      ":": 32,
      ";": 33,
      "<": 34,
      "=": 35,
      ">": 36,
      "?": 37,
      "@": 38,
      "A": 39,
      "B": 40,
      "C": 41,
      "D": 42,
      "E": 43,
      "F": 44,
      "G": 45,
      "H": 46,
      "I": 47,
      "J": 48,
      "K": 49,
      "L": 50,
      "M": 51,
      "N": 52,
      "O": 53,
      "P": 54,
      "Q": 55,
      "R": 56,
      "S": 57,
      "T": 58,
      "U": 59,
      "V": 60,
      "W": 61,
      "X": 62,
      "Y": 63,
      "Z": 64,
      "[": 65,
      "\\": 66,
      "]": 67,
      "^": 68,
      "_": 69,
      "`": 70,
      "a": 71,
      "b": 72,
      "c": 73,
      "d": 74,
      "e": 75,
      "f": 76,
      "g": 77,
      "h": 78,
      "i": 79,
      "j": 80,
      "k": 81,
      "l": 82,
      "m": 83,
      "n": 84,
      "o": 85,
      "p": 86,
      "q": 87,
      "r": 88,
      "s": 89,
      "t": 90,
      "u": 91,
      "v": 92,
      "w": 93,
      "x": 94,
      "y": 95,
      "z": 96,
      "{": 97,
      "|": 98,
      "}": 99,
      "~": 100,
      "¡": 101,
      "¢": 102,
      "£": 103,
      "¤": 104,
      "¥": 105,
      "¦": 106,
      "§": 107,
      "¨": 108,
      "©": 109,
      "ª": 110,
      "«": 111,
      "¬": 112,
      "®": 113,
      "¯": 114,
      "°": 115,
      "±": 116,
      "²": 117,
      "³": 118,
      "´": 119,
      "µ": 120,
      "¶": 121,
      "·": 122,
      "¸": 123,
      "¹": 124,
      "º": 125,
      "»": 126,
      "¼": 127,
      "½": 128,
      "¾": 129,
      "¿": 130,
      "À": 131,
      "Á": 132,
      "Â": 133,
      "Ã": 134,
      "Ä": 135,
      "Å": 136,
      "Æ": 137,
      "Ç": 138,
      "È": 139,
      "É": 140,
      "Ê": 141,
      "Ë": 142,
      "Ì": 143,
      "Í": 144,
      "Î": 145,
      "Ï": 146,
      "Ð": 147,
      "Ñ": 148,
      "Ò": 149,
      "Ó": 150,
      "Ô": 151,
      "Õ": 152,
      "Ö": 153,
      "×": 154,
      "Ø": 155,
      "Ù": 156,
      "Ú": 157,
      "Û": 158,
      "Ü": 159,
      "Ý": 160,
      "Þ": 161,
      "ß": 162,
      "à": 163,
      "á": 164,
      "â": 165,
      "ã": 166,
      "ä": 167,
      "å": 168,
      "æ": 169,
      "ç": 170,
      "è": 171,
      "é": 172,
      "ê": 173,
      "ë": 174,
      "ì": 175,
      "í": 176,
      "î": 177,
      "ï": 178,
      "ð": 179,
      "ñ": 180,
      "ò": 181,
      "ó": 182,
      "ô": 183,
      "õ": 184,
      "ö": 185,
      "÷": 186,
      "ø": 187,
      "ù": 188,
      "ú": 189,
      "û": 190,
      "ü": 191,
      "ý": 192,
      "þ": 193,
      "ÿ": 194,
      "Ā": 195,
      "ā": 196,
      "Ă": 197,
      "ă": 198,
      "Ą": 199,
      "ą": 200,
      "Ć": 201,
      "ć": 202,
      "Ĉ": 203,
      "ĉ": 204,
      "Ċ": 205,
      "ċ": 206,
      "Č": 207,
      "č": 208,
      "Ď": 209,
      "ď": 210,
      "Đ": 211,
      "đ": 212,
      "Ē": 213,
      "ē": 214,
      "Ĕ": 215,
      "ĕ": 216,
      "Ė": 217,
      "ė": 218,
      "Ę": 219,
      "ę": 220,
      "Ě": 221,
      "ě": 222,
      "Ĝ": 223,
      "ĝ": 224,
      "Ğ": 225,
      "ğ": 226,
      "Ġ": 227,
      "ġ": 228,
      "Ģ": 229,
      "ģ": 230,
      "Ĥ": 231,
      "ĥ": 232,
      "Ħ": 233,
      "ħ": 234,
      "Ĩ": 235,
      "ĩ": 236,
      "Ī": 237,
      "ī": 238,
      "Ĭ": 239,
      "ĭ": 240,
      "Į": 241,
      "į": 242,
      "İ": 243,
      "ı": 244,
      "Ĳ": 245,
      "ĳ": 246,
      "Ĵ": 247,
      "ĵ": 248,
      "Ķ": 249,
      "ķ": 250,
      "ĸ": 251,
      "Ĺ": 252,
      "ĺ": 253,
      "Ļ": 254,
      "ļ": 255,
      "Ľ": 256,
      "ľ": 257,
      "Ŀ": 258,
      "ŀ": 259,
      "Ł": 260,
      "ł": 261,
      "Ń": 262,
      "ä¸": 263,
      "çļ": 264,
      "çļĦ": 265,
      "ï¼": 266,
      "äº": 267,
      "ï¼Į": 268,
      "ĠĠ": 269,
      "ãĢ": 270,
      "åı": 271,
      "æľ": 272,
      "åħ": 273,
      "ä»": 274,
      "Ġt": 275,
      "åĪ": 276,
      "å®": 277,
      "in": 278,
      "å¤": 279,
      "Ġa": 280,
      "è¿": 281,
      "ä½": 282,
      "he": 283,
      "çĶ": 284,
      "åĲ": 285,
      "åľ": 286,
      "æĺ": 287,
      "åĬ": 288,
      "ç»": 289,
      "ãĢĤ": 290,
      "re": 291,
      "ä¹": 292,
      "æĸ": 293,
      "on": 294,
      "åĽ": 295,
      "æĪ": 296,
      "è¯": 297,
      "åŃ": 298,
      "er": 299,
      "è®": 300,
      "ä¸Ģ": 301,
      "æĺ¯": 302,
      "at": 303,
      "Ġthe": 304,
      "ä¼": 305,
      "å¹": 306,
      "ĠĠĠĠ": 307,
      "Ġs": 308,
      "æĹ": 309,
      "å°": 310,
      "en": 311,
      "or": 312,
      "æĿ": 313,
      "âĢ": 314,
      "åį": 315,
      "ãĢģ": 316,
      "åº": 317,
      "åľ¨": 318,
      "æķ": 319,
      "æľī": 320,
      "éĩ": 321,
      "äºº": 322,
      "es": 323,
      "Ġc": 324,
      "åĮ": 325,
      "èĢ": 326,
      "å¼": 327,
      "å¯": 328,
      "ä¸Ń": 329,
      "è¡": 330,
      "ä¸į": 331,
      "åĨ": 332,
      "æī": 333,
      "åĴ": 334,
      "Ġo": 335,
      "å·": 336,
      "å¸": 337,
      "åĴĮ": 338,
      "an": 339,
      "is": 340,
      "it": 341,
      "éĢ": 342,
      "ä¸º": 343,
      "è§": 344,
      "æĢ": 345,
      "al": 346,
      "åĩ": 347,
      "å¾": 348,
      "çĽ": 349,
      "Ġw": 350,
      "Ġp": 351,
      "è´": 352,
      "ĥ½": 353,
      "æł": 354,
      "ç§": 355,
      "æĶ": 356,
      "åŃ¦": 357,
      "æĬ": 358,
      "Ġf": 359,
      "ing": 360,
      "å±": 361,
      "æ³": 362,
      "åĽ½": 363,
      "çİ": 364,
      "ed": 365,
      "Ġan": 366,
      "äºĨ": 367,
      "ar": 368,
      "ä»¥": 369,
      "çĶŁ": 370,
      "æ°": 371,
      "Ġb": 372,
      "¦ģ": 373,
      "å¤§": 374,
      "è¦ģ": 375,
      "Ġin": 376,
      "å½": 377,
      "ion": 378,
      "Ġof": 379,
      "ou": 380,
      "éĻ": 381,
      "èµ": 382,
      "çī": 383,
      "ic": 384,
      "Ġm": 385,
      "ä¸ļ": 386,
      "çĶ¨": 387,
      "Ġd": 388,
      "åıĳ": 389,
      "æŃ": 390,
      "æŀ": 391,
      "çĲ": 392,
      "éĹ": 393,
      "å¿": 394,
      "ä¿": 395,
      "éĿ": 396,
      "èĥ½": 397,
      "èĩ": 398,
      "çŃ": 399,
      "Ġto": 400,
      "le": 401,
      "æİ": 402,
      "Ġand": 403,
      "ä¸ª": 404,
      "è¡Į": 405,
      "ä½ľ": 406,
      "å¯¹": 407,
      "çº": 408,
      "ĠĠĠ": 409,
      "åİ": 410,
      "æĹ¶": 411,
      "æµ": 412,
      "å¹´": 413,
      "é¢": 414,
      "ro": 415,
      "ä¸Ĭ": 416,
      "as": 417,
      "ä¼ļ": 418,
      "æĪĲ": 419,
      "åŁ": 420,
      "çĲĨ": 421,
      "è¿Ļ": 422,
      "æ³ķ": 423,
      "äºİ": 424,
      "åĳ": 425,
      "åı¯": 426,
      "æĮ": 427,
      "ent": 428,
      "æĸ¹": 429,
      "æ²": 430,
      "åĩº": 431,
      "åľ°": 432,
      "è¾": 433,
      "å·¥": 434,
      "åĪĨ": 435,
      "åĮĸ": 436,
      "åĬ¨": 437,
      "å¥": 438,
      "el": 439,
      "åĪ°": 440,
      "å®ŀ": 441,
      "ct": 442,
      "å®ļ": 443,
      "æĿ¥": 444,
      "ä½ĵ": 445,
      "æ¯": 446,
      "ä¾": 447,
      "æĥ": 448,
      "è¿Ľ": 449,
      "ç®": 450,
      "âĢľ": 451,
      "ä¸İ": 452,
      "ç«": 453,
      "æĢ§": 454,
      "âĢĿ": 455,
      "st": 456,
      "æĦ": 457,
      "æĪĳ": 458,
      "çİ°": 459,
      "äº§": 460,
      "ç¨": 461,
      "et": 462,
      "Ġre": 463,
      "Ġh": 464,
      "èĤ": 465,
      "é«": 466,
      "åĵ": 467,
      "ç»ı": 468,
      "æ±": 469,
      "é«ĺ": 470,
      "èĩª": 471,
      "Ġth": 472,
      "om": 473,
      "ä¹ĭ": 474,
      "è¿ĩ": 475,
      "æĭ": 476,
      "il": 477,
      "çŃī": 478,
      "æı": 479,
      "åĬĽ": 480,
      "å¦": 481,
      "åĲĮ": 482,
      "å®¶": 483,
      "å¤ļ": 484,
      "è½": 485,
      "åĲĪ": 486,
      "Ġe": 487,
      "éĺ": 488,
      "åī": 489,
      "çľ": 490,
      "ä¸»": 491,
      "æĸĩ": 492,
      "Ġn": 493,
      "åħ¶": 494,
      "èĢĮ": 495,
      "åħ¨": 496,
      "å»": 497,
      "Ġl": 498,
      "æľ¬": 499,
      "åħ³": 500,
      "éĥ": 501,
      "ä»¬": 502,
      "ä¸ĭ": 503,
      "æĸ°": 504,
      "åĲİ": 505,
      "åºĶ": 506,
      "å°±": 507,
      "æ´": 508,
      "im": 509,
      "ç½": 510,
      "ĊĠĠĠĠ": 511,
      "åĪ¶": 512,
      "ä¹Ł": 513,
      "ç¤": 514,
      "å±ķ": 515,
      "ç¬": 516,
      "æķĻ": 517,
      "èĢħ": 518,
      "éĿ¢": 519,
      "éģ": 520,
      "åº¦": 521,
      "éĩį": 522,
      "éķ": 523,
      "æį": 524,
      "æīĢ": 525,
      "éĥ¨": 526,
      "åģ": 527,
      "æľº": 528,
      "å¦Ĥ": 529,
      "åħ¬": 530,
      "æĽ": 531,
      "çŁ": 532,
      "æ¸": 533,
      "å»º": 534,
      "å¢": 535,
      "è°": 536,
      "20": 537,
      "çĤ": 538,
      "ç³": 539,
      "am": 540,
      "èµĦ": 541,
      "æıĲ": 542,
      "æ¬": 543,
      "ç§į": 544,
      "é¡": 545,
      "æ°ĳ": 546,
      "ut": 547,
      "Ġis": 548,
      "åŃĲ": 549,
      "æķ°": 550,
      "ch": 551,
      "çī©": 552,
      "ol": 553,
      "ä»ĸ": 554,
      "se": 555,
      "éĢļ": 556,
      "åĢ": 557,
      "ation": 558,
      "ĠT": 559,
      "è®¾": 560,
      "å¼Ģ": 561,
      "ve": 562,
      "åĬł": 563,
      "id": 564,
      "çł": 565,
      "éĩı": 566,
      "äºĭ": 567,
      "åĨħ": 568,
      "ig": 569,
      "ç³»": 570,
      "ce": 571,
      "ç©": 572,
      "æĶ¿": 573,
      "ur": 574,
      "ot": 575,
      "åĬ¡": 576,
      "éļ": 577,
      "èģ": 578,
      "éķ¿": 579,
      "ä¿Ŀ": 580,
      "åıĬ": 581,
      "å¸Ĥ": 582,
      "è¶": 583,
      "è·": 584,
      "Ġg": 585,
      "å¾Ĺ": 586,
      "ç®¡": 587,
      "ç¨ĭ": 588,
      "ç¡": 589,
      "å½ĵ": 590,
      "åĽł": 591,
      "çĽ¸": 592,
      "å¿ĥ": 593,
      "ç¬¬": 594,
      "ra": 595,
      "åŁº": 596,
      "ow": 597,
      "éĹ´": 598,
      "åĿ": 599,
      "Ġfor": 600,
      "æŁ": 601,
      "åīį": 602,
      "é¢ĺ": 603,
      "èī": 604,
      "æĪĸ": 605,
      "ly": 606,
      "çĤ¹": 607,
      "ç¾": 608,
      "æĻ": 609,
      "ä»£": 610,
      "ĊĠĠĠ": 611,
      "é£": 612,
      "un": 613,
      "Ġst": 614,
      "åıĳå±ķ": 615,
      "ä»İ": 616,
      "ĠA": 617,
      "è§Ħ": 618,
      "ä¸ī": 619,
      "æ¶": 620,
      "od": 621,
      "å¹³": 622,
      "éĽ": 623,
      "çĶµ": 624,
      "çķ": 625,
      "çĦ": 626,
      "æĺİ": 627,
      "åĵģ": 628,
      "æľŁ": 629,
      "Ġbe": 630,
      "éľ": 631,
      "æĦı": 632,
      "åħ¥": 633,
      "åĮº": 634,
      "å°ı": 635,
      "ç±": 636,
      "ï¼ļ": 637,
      "æ°´": 638,
      "ver": 639,
      "å¥½": 640,
      "çĿ": 641,
      "è®¡": 642,
      "å¹¶": 643,
      "è¯´": 644,
      "æľĢ": 645,
      "è§£": 646,
      "ä½¿": 647,
      "åĪ©": 648,
      "ul": 649,
      "çĽ®": 650,
      "èĬ": 651,
      "è¡¨": 652,
      "ĠS": 653,
      "å¼ı": 654,
      "éĥ½": 655,
      "æľ¯": 656,
      "ä½į": 657,
      "æĥħ": 658,
      "ad": 659,
      "å°Ĩ": 660,
      "å¤ĸ": 661,
      "ç»ĵ": 662,
      "æį®": 663,
      "Ġy": 664,
      "çĹ": 665,
      "us": 666,
      "ä¸Ģä¸ª": 667,
      "if": 668,
      "æĬĢ": 669,
      "ç»Ł": 670,
      "ir": 671,
      "çĸ": 672,
      "ĠC": 673,
      "æĽ´": 674,
      "ç¤¾": 675,
      "Ġon": 676,
      "ä¿¡": 677,
      "æģ": 678,
      "æ¡": 679,
      "ç´": 680,
      "æŃ¤": 681,
      "çĦ¶": 682,
      "å§": 683,
      "åı¯ä»¥": 684,
      "æ´»": 685,
      "ith": 686,
      "Ġthat": 687,
      "éĹ®": 688,
      "æĹ¥": 689,
      "æłĩ": 690,
      "ç§ĳ": 691,
      "æŀľ": 692,
      "ä¸ŃåĽ½": 693,
      "çī¹": 694,
      "--": 695,
      "ĊĠĠĠĠĠĠĠ": 696,
      "éĩĳ": 697,
      "ç¼": 698,
      "è´¨": 699,
      "ĠI": 700,
      "äºĮ": 701,
      "çłĶ": 702,
      "èĲ": 703,
      "å¼º": 704,
      "æĹł": 705,
      "çĶ±": 706,
      "Ġ(": 707,
      "Ġcon": 708,
      "å¸¸": 709,
      "åĳĺ": 710,
      "æŃ£": 711,
      "äºĽ": 712,
      "åľº": 713,
      "æº": 714,
      "æ¯Ķ": 715,
      "å®ī": 716,
      "ç«ĭ": 717,
      "å½¢": 718,
      "ä½Ĩ": 719,
      "è¿ĺ": 720,
      "çĻ": 721,
      "å·¥ä½ľ": 722,
      "èĤ²": 723,
      "èĥ": 724,
      "00": 725,
      "Ġas": 726,
      "éľĢ": 727,
      "ä»¶": 728,
      "å¤©": 729,
      "åıĺ": 730,
      "æĪĳä»¬": 731,
      "æ±Ĥ": 732,
      "ay": 733,
      "ag": 734,
      "åĲĳ": 735,
      "ä¼ģ": 736,
      "Ġpro": 737,
      "æ·": 738,
      "ï¼ī": 739,
      "ç²": 740,
      "éĶ": 741,
      "Ġ1": 742,
      "å¯¼": 743,
      "èµ·": 744,
      "éģĵ": 745,
      "ï¼Ī": 746,
      "åŀ": 747,
      "æŀĦ": 748,
      "åĲĦ": 749,
      "Ġ\"": 750,
      "è¢": 751,
      "åİŁ": 752,
      "çŁ¥": 753,
      "æķĪ": 754,
      "èĭ": 755,
      "ç»Ħ": 756,
      "Ġyou": 757,
      "éħ": 758,
      "æĮģ": 759,
      "ort": 760,
      "Ġde": 761,
      "å¢ŀ": 762,
      "æľĪ": 763,
      "æĿĥ": 764,
      "ment": 765,
      "çĿĢ": 766,
      "Ġwith": 767,
      "æ²»": 768,
      "ä¼ģä¸ļ": 769,
      "pe": 770,
      "åħ·": 771,
      "ç±»": 772,
      "ab": 773,
      "ç¥": 774,
      "éª": 775,
      "åĪĽ": 776,
      "æİ¥": 777,
      "è®¤": 778,
      "ter": 779,
      "åįģ": 780,
      "è¿Ľè¡Į": 781,
      "è®º": 782,
      "æĮĩ": 783,
      "æĿ¡": 784,
      "èĢĥ": 785,
      "æ¬¡": 786,
      "å¤Ħ": 787,
      "æµģ": 788,
      "ä¹ł": 789,
      "Ġare": 790,
      "ä»»": 791,
      "Ġ=": 792,
      "Ġor": 793,
      "ä¼ł": 794,
      "ist": 795,
      "ä¹¦": 796,
      "åħ±": 797,
      "her": 798,
      "èį": 799,
      "ate": 800,
      "éĵ": 801,
      "ä¹ī": 802,
      "éĢł": 803,
      "ç¤¾ä¼ļ": 804,
      "å¸Ī": 805,
      "ç©¶": 806,
      "Ġal": 807,
      "å£": 808,
      "ĠP": 809,
      "æĶ¹": 810,
      "æ®": 811,
      "ç½ĳ": 812,
      "ess": 813,
      "ç¾İ": 814,
      "äº¤": 815,
      "è°ĥ": 816,
      "æºĲ": 817,
      "est": 818,
      "è¢«": 819,
      "çģ": 820,
      "Ġit": 821,
      "éĹ®é¢ĺ": 822,
      "ç®¡çĲĨ": 823,
      "å¾Ī": 824,
      "ãĢĬ": 825,
      "ãĢĭ": 826,
      "éĻ¢": 827,
      "æł·": 828,
      "ç¡®": 829,
      "ĊĠĠĠĠĠĠĠĠ": 830,
      "èĪ": 831,
      "è¯Ĩ": 832,
      "Ġex": 833,
      "éĴ": 834,
      "æµİ": 835,
      "åįķ": 836,
      "è¯ģ": 837,
      "åħĥ": 838,
      "çľĭ": 839,
      "ac": 840,
      "çĥ": 841,
      "é¡¹": 842,
      "Ĥ£": 843,
      "åıĹ": 844,
      "rom": 845,
      "æĶ¶": 846,
      "ĠM": 847,
      "ers": 848,
      "ä¸ĵ": 849,
      "åķ": 850,
      "\",": 851,
      "è¿Ĳ": 852,
      "ä»·": 853,
      "th": 854,
      "æľį": 855,
      "ri": 856,
      "ä¸¤": 857,
      "åģļ": 858,
      "åı¸": 859,
      "æĢĿ": 860,
      "ä¹Ī": 861,
      "op": 862,
      "åĲį": 863,
      "Ġwh": 864,
      "åŀĭ": 865,
      "ç»ıæµİ": 866,
      "oc": 867,
      "æĥ³": 868,
      "and": 869,
      "em": 870,
      "æĦŁ": 871,
      "èĦ": 872,
      "çłĶç©¶": 873,
      "um": 874,
      "çº§": 875,
      "ĠThe": 876,
      "æĬĢæľ¯": 877,
      "èĮ": 878,
      "res": 879,
      "åĩĨ": 880,
      "æ¨": 881,
      "åĸ": 882,
      "æĸ½": 883,
      "æİ¨": 884,
      "qu": 885,
      "åŃ¦çĶŁ": 886,
      "ht": 887,
      "pp": 888,
      "èº": 889,
      "Ġv": 890,
      "ain": 891,
      "æ°Ķ": 892,
      "é¦": 893,
      "é£İ": 894,
      "æķĻèĤ²": 895,
      "Ġcom": 896,
      "æ¡Ī": 897,
      "éĩĮ": 898,
      "çĹħ": 899,
      "å·²": 900,
      "åĪĻ": 901,
      "Ġhe": 902,
      "çİ¯": 903,
      "æ²¡": 904,
      "åıĸ": 905,
      "èĬĤ": 906,
      "éĹ¨": 907,
      "çº¿": 908,
      "ore": 909,
      "æĢ»": 910,
      "ke": 911,
      "å®¹": 912,
      "è½¬": 913,
      "åĽ½å®¶": 914,
      "os": 915,
      "ect": 916,
      "åĽĽ": 917,
      "èĻ": 918,
      "åķĨ": 919,
      "ï¼Ľ": 920,
      "ä¸ĸ": 921,
      "ä¾Ľ": 922,
      "è§Ĥ": 923,
      "èº«": 924,
      "åŃĺ": 925,
      "è¾ĥ": 926,
      "åĻ": 927,
      "åħĪ": 928,
      "å·±": 929,
      "åĨ³": 930,
      "èī²": 931,
      "èģĶ": 932,
      "åıª": 933,
      "éĢļè¿ĩ": 934,
      "ĠB": 935,
      "èĩ³": 936,
      "å®Į": 937,
      "å°ĳ": 938,
      "çĬ": 939,
      "æł¼": 940,
      "æł¡": 941,
      "âĢĻ": 942,
      "ity": 943,
      "è¥": 944,
      "æĬ¥": 945,
      "æīĭ": 946,
      "åİ»": 947,
      "è®°": 948,
      "é¢Ĩ": 949,
      "è±": 950,
      "ill": 951,
      "æ¨¡": 952,
      "è·¯": 953,
      "è¾¾": 954,
      "æķ´": 955,
      "åĪ«": 956,
      "imp": 957,
      "çĪ": 958,
      "pt": 959,
      "çİĩ": 960,
      "æģ¯": 961,
      "è£": 962,
      "éĽĨ": 963,
      "è´¹": 964,
      "è¥¿": 965,
      "åıį": 966,
      "æĶ¾": 967,
      "Ġsu": 968,
      "èĩªå·±": 969,
      "é©": 970,
      "åĨľ": 971,
      "ies": 972,
      "ç¦": 973,
      "å½±": 974,
      "å¢ĥ": 975,
      "æ£": 976,
      "åĻ¨": 977,
      "åŃĹ": 978,
      "æĶ¯": 979,
      "ant": 980,
      "è¯¥": 981,
      "æŃ¥": 982,
      "ç¤º": 983,
      "ĠD": 984,
      "å®ĥ": 985,
      "å¼ķ": 986,
      "åŁİ": 987,
      "æ³¨": 988,
      "Ġr": 989,
      "ere": 990,
      "æĸĻ": 991,
      "åĮ»": 992,
      "ĠN": 993,
      "æĢģ": 994,
      "å¤į": 995,
      "æ¯ı": 996,
      "åħ»": 997,
      "éĿŀ": 998,
      "å¤ĩ": 999,
      "åı£": 1000,
      "éĢī": 1001,
      "åĽ¾": 1002,
      "æĬ¤": 1003,
      "æīį": 1004,
      "æł¹": 1005,
      "æĪĺ": 1006,
      "åħ¬åı¸": 1007,
      "ĠH": 1008,
      "Ġcan": 1009,
      "æ·±": 1010,
      "ä½ł": 1011,
      "å¿ħ": 1012,
      "oun": 1013,
      "æ»": 1014,
      "æµ·": 1015,
      "è®©": 1016,
      "ä¸ĩ": 1017,
      "çķĮ": 1018,
      "æľįåĬ¡": 1019,
      "éľĢè¦ģ": 1020,
      "åĢ¼": 1021,
      "iv": 1022,
      "ĠF": 1023,
      "201": 1024,
      "ç²¾": 1025,
      "æĬĬ": 1026,
      "ive": 1027,
      "çħ": 1028,
      "ä½İ": 1029,
      "æĬķ": 1030,
      "éĻħ": 1031,
      "Ġby": 1032,
      "og": 1033,
      "ĠR": 1034,
      "æ²¡æľī": 1035,
      "è¿ĳ": 1036,
      "ä¼ĺ": 1037,
      "éªĮ": 1038,
      "ure": 1039,
      "è¯Ń": 1040,
      "çĽ´": 1041,
      "..": 1042,
      "å¸Ĥåľº": 1043,
      "ç»Ļ": 1044,
      "ä½ķ": 1045,
      "è®®": 1046,
      "ĠW": 1047,
      "ld": 1048,
      "èĲ¥": 1049,
      "æĺĵ": 1050,
      "ĠE": 1051,
      "èĢģ": 1052,
      "è¯¾": 1053,
      "æ¶Ī": 1054,
      "åĮħ": 1055,
      "å°±æĺ¯": 1056,
      "Ġch": 1057,
      "æĸŃ": 1058,
      "å¸¦": 1059,
      "ä¸ľ": 1060,
      "å¾ĭ": 1061,
      "æŁ¥": 1062,
      "å²": 1063,
      "è§ģ": 1064,
      "ç´ł": 1065,
      "å»ºè®¾": 1066,
      "Ġfrom": 1067,
      "ud": 1068,
      "åĮĹ": 1069,
      "è½¦": 1070,
      "åħļ": 1071,
      "èĮĥ": 1072,
      "ä¾ĭ": 1073,
      "ä¸»è¦ģ": 1074,
      "åįĹ": 1075,
      "åı²": 1076,
      "æ¸ħ": 1077,
      "åĶ": 1078,
      "éĩįè¦ģ": 1079,
      "è´£": 1080,
      "è±¡": 1081,
      "éĤ£": 1082,
      "è§Ĩ": 1083,
      "åĨµ": 1084,
      "Ġne": 1085,
      "åħī": 1086,
      "Ġat": 1087,
      "èģĮ": 1088,
      "åŃ¦ä¹ł": 1089,
      "ial": 1090,
      "ç³»ç»Ł": 1091,
      "pl": 1092,
      "æĿĳ": 1093,
      "å±±": 1094,
      "ç®Ĺ": 1095,
      "æľª": 1096,
      "åĽŀ": 1097,
      "åı°": 1098,
      "åĬŁ": 1099,
      "äººæ°ĳ": 1100,
      "åİĨ": 1101,
      "éĻ©": 1102,
      "ä½¿çĶ¨": 1103,
      "éĺ²": 1104,
      "Ġen": 1105,
      "åĦ": 1106,
      "æŀģ": 1107,
      "Ġnot": 1108,
      "Ġ-": 1109,
      "è¯ķ": 1110,
      "çŃĸ": 1111,
      "åıĤ": 1112,
      "ç»Ń": 1113,
      "èŀ": 1114,
      "æĸĩåĮĸ": 1115,
      "åį³": 1116,
      "per": 1117,
      "ĠL": 1118,
      "åĬŀ": 1119,
      "éļ¾": 1120,
      "19": 1121,
      "art": 1122,
      "æĪ·": 1123,
      "åŁŁ": 1124,
      "åĵį": 1125,
      "iz": 1126,
      "ave": 1127,
      "é»": 1128,
      "ĊĠ": 1129,
      "ç©º": 1130,
      "äºĶ": 1131,
      "éĩĩ": 1132,
      "å¹¿": 1133,
      "æĸ¹éĿ¢": 1134,
      "ĊĠĠĠĠĠĠĠĠĠĠĠ": 1135,
      "all": 1136,
      "Ġse": 1137,
      "æ®µ": 1138,
      "age": 1139,
      "åįĩ": 1140,
      "æµĭ": 1141,
      "æİ§": 1142,
      "ç¥ŀ": 1143,
      "çľŁ": 1144,
      "ions": 1145,
      "èİ": 1146,
      "__": 1147,
      "æķ°æį®": 1148,
      "åıĪ": 1149,
      "ame": 1150,
      "ĠG": 1151,
      "è¨": 1152,
      "çĽĬ": 1153,
      "åĨį": 1154,
      "Ġimp": 1155,
      "å¤´": 1156,
      "åĪĴ": 1157,
      "ç§°": 1158,
      "èĥ½åĬĽ": 1159,
      "çľģ": 1160,
      "éŁ": 1161,
      "å±Ĥ": 1162,
      "åı¯èĥ½": 1163,
      "åĬ©": 1164,
      "ical": 1165,
      "ç§¯": 1166,
      "çª": 1167,
      "ä¾Ŀ": 1168,
      "åĦ¿": 1169,
      "æĹ¶éĹ´": 1170,
      "ç»ĩ": 1171,
      "è¨Ģ": 1172,
      "éĢŁ": 1173,
      "ç½®": 1174,
      "å®īåħ¨": 1175,
      "åºľ": 1176,
      "Ġle": 1177,
      "èŀį": 1178,
      "ç»´": 1179,
      "åĨĽ": 1180,
      "),": 1181,
      "10": 1182,
      "è¯Ħ": 1183,
      "ult": 1184,
      "å±Ģ": 1185,
      "çĽĳ": 1186,
      "å¸ĥ": 1187,
      "Ġsh": 1188,
      "ä¿¡æģ¯": 1189,
      "ight": 1190,
      "ä¸ŃçļĦ": 1191,
      "è¦ģæ±Ĥ": 1192,
      "åĳ½": 1193,
      "ine": 1194,
      "ä¸įåĲĮ": 1195,
      "éĢĤ": 1196,
      "èĩ´": 1197,
      "æĺ¾": 1198,
      "éĻ¤": 1199,
      "åĳĬ": 1200,
      "ä»Ģ": 1201,
      "é£Ł": 1202,
      "Ġun": 1203,
      "å½±åĵį": 1204,
      "çĬ¶": 1205,
      "è¯»": 1206,
      "åĬ¿": 1207,
      "æł¸": 1208,
      "è¶Ĭ": 1209,
      "å§ĭ": 1210,
      "out": 1211,
      "çĭ": 1212,
      "Ġwas": 1213,
      "åŁ¹": 1214,
      "å¦Ĥæŀľ": 1215,
      "çº¦": 1216,
      "æ£Ģ": 1217,
      "ç»Ĩ": 1218,
      "åĨĻ": 1219,
      "ä»Ģä¹Ī": 1220,
      "ru": 1221,
      "Ġu": 1222,
      "æĥħåĨµ": 1223,
      "ä»Ĭ": 1224,
      "çĶŁæ´»": 1225,
      "ä¸Ķ": 1226,
      "ge": 1227,
      "çħ§": 1228,
      "elf": 1229,
      "ps": 1230,
      "ãĢĢ": 1231,
      "æīĵ": 1232,
      "ç»Ħç»ĩ": 1233,
      "å¿«": 1234,
      "éĻĲ": 1235,
      "Ġus": 1236,
      "è¯·": 1237,
      "cl": 1238,
      "è§Ħå®ļ": 1239,
      "æ´»åĬ¨": 1240,
      "çĶŁäº§": 1241,
      "è¿ĩç¨ĭ": 1242,
      "æĪ¿": 1243,
      "æŀĲ": 1244,
      "act": 1245,
      "éĿ©": 1246,
      "éħį": 1247,
      "orm": 1248,
      "çİ¯å¢ĥ": 1249,
      "é¢Ħ": 1250,
      "å¹²": 1251,
      "æĮī": 1252,
      "åįİ": 1253,
      "ä»ĸä»¬": 1254,
      "æĸ¹æ³ķ": 1255,
      "one": 1256,
      "çĸĹ": 1257,
      "æĿĲ": 1258,
      "end": 1259,
      "Ġthis": 1260,
      "æĶ¿åºľ": 1261,
      "ex": 1262,
      "ast": 1263,
      "our": 1264,
      "äº§åĵģ": 1265,
      "æ¢": 1266,
      "è¶³": 1267,
      ".\"": 1268,
      "Ġhave": 1269,
      "çĲĥ": 1270,
      "ç¡Ģ": 1271,
      "ĠĠĠĠĠĠĠĠ": 1272,
      "ä¸Ģç§į": 1273,
      "ç¢": 1274,
      "ï¼Ł": 1275,
      "åŁºç¡Ģ": 1276,
      "çĥŃ": 1277,
      "æĴ": 1278,
      "é¦ĸ": 1279,
      "åįı": 1280,
      "æĸ¹å¼ı": 1281,
      "com": 1282,
      "å§Ķ": 1283,
      "åı·": 1284,
      "Ġwe": 1285,
      "ated": 1286,
      "å®¡": 1287,
      "å¤±": 1288,
      "Ġint": 1289,
      "åĲĮæĹ¶": 1290,
      "åĩł": 1291,
      "äºī": 1292,
      "æķħ": 1293,
      "åľŁ": 1294,
      "ä»¥åıĬ": 1295,
      "æıĲä¾Ľ": 1296,
      "du": 1297,
      "con": 1298,
      "éĥ¨åĪĨ": 1299,
      "ä½ľä¸º": 1300,
      "å¾·": 1301,
      "ä¼Ĺ": 1302,
      "å®ŀçİ°": 1303,
      "ans": 1304,
      "æ¼": 1305,
      "ich": 1306,
      "è®¾è®¡": 1307,
      "ff": 1308,
      "åĳ¨": 1309,
      "âĢĶ": 1310,
      "äº§ä¸ļ": 1311,
      "ib": 1312,
      "æıĲé«ĺ": 1313,
      "åİĭ": 1314,
      "åĸĦ": 1315,
      "æī¿": 1316,
      "äººçļĦ": 1317,
      "åŃ©": 1318,
      "ost": 1319,
      "éļı": 1320,
      "äºĴ": 1321,
      "ç¾¤": 1322,
      "ĠIn": 1323,
      "çĻ½": 1324,
      "able": 1325,
      "ard": 1326,
      "è¿Ļä¸ª": 1327,
      "èħ": 1328,
      "è¿ĻäºĽ": 1329,
      "The": 1330,
      "Ġyour": 1331,
      "ç¦»": 1332,
      "ä»ħ": 1333,
      "ass": 1334,
      "----": 1335,
      "çİĭ": 1336,
      "å±ŀ": 1337,
      "åħ³ç³»": 1338,
      "Ġab": 1339,
      "Ġwor": 1340,
      "åĪĹ": 1341,
      "è´¢": 1342,
      "ç¨İ": 1343,
      "åħ·æľī": 1344,
      "ä¸¥": 1345,
      "are": 1346,
      "åı¤": 1347,
      "æ¸¸": 1348,
      "éĻį": 1349,
      "è£ħ": 1350,
      "Ġpl": 1351,
      "ä¿®": 1352,
      "å¿µ": 1353,
      "ä½ľçĶ¨": 1354,
      "å¾Ģ": 1355,
      "çĽ¸åħ³": 1356,
      "æĳ": 1357,
      "åĨħå®¹": 1358,
      "è¶ħ": 1359,
      ").": 1360,
      "ell": 1361,
      "æĤ": 1362,
      "æħ": 1363,
      "æłĩåĩĨ": 1364,
      "ä¸ĸçķĮ": 1365,
      "æł¹æį®": 1366,
      "ould": 1367,
      "èĳ": 1368,
      "æķĻåŃ¦": 1369,
      "åºı": 1370,
      "Ġ2": 1371,
      "æİĴ": 1372,
      "ĠO": 1373,
      "èį¯": 1374,
      "åĿĩ": 1375,
      "ç§ĳåŃ¦": 1376,
      "å¼ł": 1377,
      "æ¬¾": 1378,
      "ks": 1379,
      "ç«ł": 1380,
      "åħ¶ä»ĸ": 1381,
      "Ġres": 1382,
      "Ġar": 1383,
      "é¡¹çĽ®": 1384,
      "çŁ¥è¯Ĩ": 1385,
      "æ¹": 1386,
      "äººåĳĺ": 1387,
      "åĪĽæĸ°": 1388,
      "è®¸": 1389,
      "æĪĳåĽ½": 1390,
      "åħħ": 1391,
      "åĪĨæŀĲ": 1392,
      "åĽ´": 1393,
      "æĭ¬": 1394,
      "ther": 1395,
      "çĮ": 1396,
      "çı": 1397,
      "Ġcont": 1398,
      "åŃ©åŃĲ": 1399,
      "é¡»": 1400,
      "è¯Ŀ": 1401,
      "æĪĲä¸º": 1402,
      "çĻ¾": 1403,
      "å¤ª": 1404,
      "ç¬¬ä¸Ģ": 1405,
      "æĬķèµĦ": 1406,
      "å¯¹äºİ": 1407,
      "ire": 1408,
      "æŁĲ": 1409,
      "ust": 1410,
      "Ġtheir": 1411,
      "æĻº": 1412,
      "æĹı": 1413,
      "æĪĸèĢħ": 1414,
      "de": 1415,
      "åĩı": 1416,
      "åģ¥": 1417,
      "der": 1418,
      "ĠU": 1419,
      "ile": 1420,
      "åĽłä¸º": 1421,
      "åĥ": 1422,
      "å¤Ł": 1423,
      "èĤ¡": 1424,
      "int": 1425,
      "èµĦæºĲ": 1426,
      "âĢ¦": 1427,
      "å¡": 1428,
      "è¿°": 1429,
      "èĲ½": 1430,
      "ä¹Ĳ": 1431,
      "ple": 1432,
      "èİ·": 1433,
      "åĿļ": 1434,
      "å£«": 1435,
      "åŁºæľ¬": 1436,
      "ä¾¿": 1437,
      "è¡Įä¸º": 1438,
      "Ġad": 1439,
      "è´Ł": 1440,
      "é¥": 1441,
      "ations": 1442,
      "å¾ģ": 1443,
      "ç»ľ": 1444,
      "ä¸įèĥ½": 1445,
      "æľºæŀĦ": 1446,
      "200": 1447,
      "åĽ¢": 1448,
      "åĪ¶åº¦": 1449,
      "Ġif": 1450,
      "èīº": 1451,
      "éĥ¨éĹ¨": 1452,
      "ä¸ĢäºĽ": 1453,
      "çļĦäºº": 1454,
      "éĺŁ": 1455,
      "çķ¥": 1456,
      "ide": 1457,
      "åĪĩ": 1458,
      "lo": 1459,
      "Ġk": 1460,
      "ath": 1461,
      "åħ´": 1462,
      "èĬ±": 1463,
      "âĢĿï¼Į": 1464,
      "hen": 1465,
      "æ±Ł": 1466,
      "ä¸įæĺ¯": 1467,
      "å®³": 1468,
      "çīĩ": 1469,
      "å¯Ĩ": 1470,
      "ance": 1471,
      "é©¬": 1472,
      "æĻ¯": 1473,
      "éŁ³": 1474,
      "åĽłæŃ¤": 1475,
      "æīĢä»¥": 1476,
      "åºĶçĶ¨": 1477,
      "ä¸»ä¹ī": 1478,
      "æ³ķå¾ĭ": 1479,
      "ak": 1480,
      "åĮħæĭ¬": 1481,
      "æĵ": 1482,
      "åİĨåı²": 1483,
      "low": 1484,
      "ä¿ĿæĬ¤": 1485,
      "ens": 1486,
      "Ġ`": 1487,
      "åĬ³": 1488,
      "çŁ³": 1489,
      "æļ": 1490,
      "vel": 1491,
      "ound": 1492,
      "è¿Ļç§į": 1493,
      "nt": 1494,
      "åĩºçİ°": 1495,
      "è®¤ä¸º": 1496,
      "åİ¿": 1497,
      "ind": 1498,
      "åħĭ": 1499,
      "ime": 1500,
      "æĶ¿çŃĸ": 1501,
      "Ġwhich": 1502,
      "èı": 1503,
      "åĭ": 1504,
      "ack": 1505,
      "ous": 1506,
      "å·ŀ": 1507,
      "so": 1508,
      "oug": 1509,
      "ç»ĵæŀĦ": 1510,
      "åıĳçĶŁ": 1511,
      "çļĦæĺ¯": 1512,
      "æī§": 1513,
      "åŃĺåľ¨": 1514,
      "æ²³": 1515,
      "Ġwill": 1516,
      "åº·": 1517,
      "ç»Ī": 1518,
      "è¿ŀ": 1519,
      "æ¸©": 1520,
      "è®²": 1521,
      "cc": 1522,
      "ub": 1523,
      "åł": 1524,
      "ap": 1525,
      "ç½ĳç»ľ": 1526,
      "èµ°": 1527,
      "åĲ¦": 1528,
      "ä¹¡": 1529,
      "åĪĿ": 1530,
      "ry": 1531,
      "è´¨éĩı": 1532,
      "é¾": 1533,
      "å¤§çļĦ": 1534,
      "ie": 1535,
      "å¿Ĺ": 1536,
      "æ»¡": 1537,
      "è§Ĵ": 1538,
      "ase": 1539,
      "Ġ[": 1540,
      "å®¢": 1541,
      "è¿ľ": 1542,
      "ary": 1543,
      "ign": 1544,
      "å½¢æĪĲ": 1545,
      "è¡Ģ": 1546,
      "è¯ī": 1547,
      "ä¸ĵä¸ļ": 1548,
      "ction": 1549,
      "ue": 1550,
      "æĸ¯": 1551,
      "ild": 1552,
      "åĽŃ": 1553,
      "ä½ı": 1554,
      "èĪ¬": 1555,
      "éļľ": 1556,
      "éĶĢ": 1557,
      "å±ħ": 1558,
      "av": 1559,
      "Ġcl": 1560,
      "ç®Ģ": 1561,
      "è¿Ļæł·": 1562,
      "åĢĻ": 1563,
      "ä¸Ģå®ļ": 1564,
      "å·²ç»ı": 1565,
      "()": 1566,
      "å¿ħé¡»": 1567,
      "å·®": 1568,
      "åįķä½į": 1569,
      "æĭ©": 1570,
      "äº¬": 1571,
      "Ġimport": 1572,
      "è¾¹": 1573,
      "form": 1574,
      "åŁİå¸Ĥ": 1575,
      "å¥³": 1576,
      "åĥı": 1577,
      "å¤ĦçĲĨ": 1578,
      "çªģ": 1579,
      "å¤§åŃ¦": 1580,
      "ç¼ĸ": 1581,
      "ang": 1582,
      "ĠTh": 1583,
      "ç±³": 1584,
      "æ¿": 1585,
      "ip": 1586,
      "odel": 1587,
      "æŀĹ": 1588,
      "ence": 1589,
      "å·¥ç¨ĭ": 1590,
      "å¾®": 1591,
      "æĻ®": 1592,
      "è¡¥": 1593,
      "å»ºç«ĭ": 1594,
      "ä¸¾": 1595,
      "ual": 1596,
      "ome": 1597,
      "Ġdis": 1598,
      "Ġmore": 1599,
      "Ġthey": 1600,
      "ä¸ĬçļĦ": 1601,
      "å¦Ĥä½ķ": 1602,
      "åıĳçİ°": 1603,
      "åħį": 1604,
      "ĠJ": 1605,
      "éĺ³": 1606,
      "urn": 1607,
      "``": 1608,
      "Ġ3": 1609,
      "åĪ¤": 1610,
      "è®Ń": 1611,
      "è¯Ĺ": 1612,
      "å¯Į": 1613,
      "é¢Ŀ": 1614,
      "\"\"": 1615,
      "çĪ±": 1616,
      "çĭ¬": 1617,
      "ach": 1618,
      "ong": 1619,
      "å®ŀæĸ½": 1620,
      "æĭħ": 1621,
      "æıĲåĩº": 1622,
      "Ġhas": 1623,
      "12": 1624,
      "ata": 1625,
      "ç¬¬äºĮ": 1626,
      "åħŃ": 1627,
      "ç¨³": 1628,
      "æŃ¢": 1629,
      "éĢīæĭ©": 1630,
      "ä¸ĢèĪ¬": 1631,
      "èĩªå·±çļĦ": 1632,
      "åĽ½éĻħ": 1633,
      "åŃ¦æł¡": 1634,
      "åĪ©çĶ¨": 1635,
      "çĶ»": 1636,
      "äº§çĶŁ": 1637,
      "çĶ±äºİ": 1638,
      "æĢĿæĥ³": 1639,
      "è§ī": 1640,
      "åıĮ": 1641,
      "ia": 1642,
      "ents": 1643,
      "èĭ±": 1644,
      "è´£ä»»": 1645,
      "è¡Įä¸ļ": 1646,
      "æ¿Ģ": 1647,
      "ä¹ĭéĹ´": 1648,
      "å¼Ĥ": 1649,
      "æ¦": 1650,
      "çºª": 1651,
      "ice": 1652,
      "åĲ«": 1653,
      "ä¸įæĸŃ": 1654,
      "éĿĴ": 1655,
      "æ°´å¹³": 1656,
      "å¼Ģå§ĭ": 1657,
      "ep": 1658,
      "å£°": 1659,
      "åĤ": 1660,
      "ä¿ĥ": 1661,
      "ä½ĵç³»": 1662,
      "æľĽ": 1663,
      "ç§»": 1664,
      "æĤ£": 1665,
      "ä¹Łæĺ¯": 1666,
      "çģ«": 1667,
      "ear": 1668,
      "ory": 1669,
      "åľ°åĮº": 1670,
      "ace": 1671,
      "çĽ®æłĩ": 1672,
      "å½ķ": 1673,
      "æİ§åĪ¶": 1674,
      "è§£åĨ³": 1675,
      "æŁĵ": 1676,
      "Ġ|": 1677,
      "å¯Ł": 1678,
      "æī¹": 1679,
      "ok": 1680,
      "å°Ķ": 1681,
      "ition": 1682,
      "èī¯": 1683,
      "çĶ³": 1684,
      "Ġdo": 1685,
      "è¿Ļä¸Ģ": 1686,
      "æĲ": 1687,
      "ake": 1688,
      "ä»½": 1689,
      "ä¸Ńå¿ĥ": 1690,
      "Ġ#": 1691,
      "Ġpre": 1692,
      "æķĻå¸Ī": 1693,
      "ä½Ĩæĺ¯": 1694,
      "éĺ¶": 1695,
      "å®ĺ": 1696,
      "Ġper": 1697,
      "éĵ¶": 1698,
      "vers": 1699,
      "Ġcomp": 1700,
      "çĲĨè®º": 1701,
      "æľīæķĪ": 1702,
      "è¯į": 1703,
      "Ġman": 1704,
      "çł´": 1705,
      "å¢ŀéķ¿": 1706,
      "ress": 1707,
      "åºķ": 1708,
      "ĊĊĠĠĠ": 1709,
      "ç¾İåĽ½": 1710,
      "å°½": 1711,
      "Ġout": 1712,
      "rain": 1713,
      "æ¤": 1714,
      "æĿ¡ä»¶": 1715,
      "æĶ¹éĿ©": 1716,
      "èĩªçĦ¶": 1717,
      "å®¤": 1718,
      "):": 1719,
      "ough": 1720,
      "äº¿": 1721,
      "èĥ½å¤Ł": 1722,
      "å®ŀéĻħ": 1723,
      "ä»·åĢ¼": 1724,
      "ä¸ªäºº": 1725,
      "è´Ń": 1726,
      "è®¡ç®Ĺ": 1727,
      "è¾ĵ": 1728,
      "åı¦": 1729,
      "åºĶå½ĵ": 1730,
      "å¢ŀåĬł": 1731,
      "æľīåħ³": 1732,
      "ĠâĢľ": 1733,
      "å¥½çļĦ": 1734,
      "py": 1735,
      "Ġall": 1736,
      "50": 1737,
      "Ġalso": 1738,
      "æįŁ": 1739,
      "è´§": 1740,
      "çº¢": 1741,
      "ä¸´": 1742,
      "åĬłå¼º": 1743,
      "ç«¯": 1744,
      "Ġother": 1745,
      "ĠĠĠĠĠĠĠ": 1746,
      "é£İéĻ©": 1747,
      "éĤ": 1748,
      "ç¼º": 1749,
      "æĹ©": 1750,
      "ors": 1751,
      "ä»ĭ": 1752,
      "Ġj": 1753,
      "ç»§": 1754,
      "Ġdef": 1755,
      "çīĪ": 1756,
      "æŃ»": 1757,
      "ater": 1758,
      "Ġsc": 1759,
      "æĺŁ": 1760,
      "æĶ¿æ²»": 1761,
      "ç²¾ç¥ŀ": 1762,
      "çº³": 1763,
      "çĽ®åīį": 1764,
      "æİ¢": 1765,
      "\".": 1766,
      "çıŃ": 1767,
      "åħ¨åĽ½": 1768,
      "æ¶Īè´¹": 1769,
      "åħ¶ä¸Ń": 1770,
      "âĳ": 1771,
      "é¢ĨåŁŁ": 1772,
      "âĢ¦âĢ¦": 1773,
      "Ġme": 1774,
      "çĨ": 1775,
      "ces": 1776,
      "æ¥": 1777,
      "å¼Ģå±ķ": 1778,
      "çŃĶ": 1779,
      "åĬŁèĥ½": 1780,
      "Ġself": 1781,
      "é»Ħ": 1782,
      "ä¼¤": 1783,
      "æ²¹": 1784,
      "å¨": 1785,
      "åĲ¸": 1786,
      "è¡ĮæĶ¿": 1787,
      "arg": 1788,
      "æį¢": 1789,
      "æĿĲæĸĻ": 1790,
      "Ġcomm": 1791,
      "ä¼łç»Ł": 1792,
      "è·µ": 1793,
      "å¾Īå¤ļ": 1794,
      "'s": 1795,
      "åį«": 1796,
      "ä¸ĢæŃ¥": 1797,
      "ood": 1798,
      "åľ°æĸ¹": 1799,
      "åıĺåĮĸ": 1800,
      "Ġbut": 1801,
      "éĥ½æĺ¯": 1802,
      "Ġsy": 1803,
      "ç«Ļ": 1804,
      "çŃĳ": 1805,
      "æĵį": 1806,
      "ç§ĳæĬĢ": 1807,
      "åĽº": 1808,
      "çķĻ": 1809,
      "åįĥ": 1810,
      "ä»ĺ": 1811,
      "ict": 1812,
      "ates": 1813,
      "çļĦä¸Ģ": 1814,
      "pec": 1815,
      "fig": 1816,
      "éľĢæ±Ĥ": 1817,
      "åºŃ": 1818,
      "ç´¢": 1819,
      "æĹ¶ä»£": 1820,
      "ç»ĵåĲĪ": 1821,
      "çİ°ä»£": 1822,
      "æĬĹ": 1823,
      "çŁŃ": 1824,
      "ãĢĤâĢĿ": 1825,
      "åį´": 1826,
      "åįł": 1827,
      "ber": 1828,
      "Ġsp": 1829,
      "11": 1830,
      "æıĲåįĩ": 1831,
      "Ġapp": 1832,
      "Ġone": 1833,
      "ty": 1834,
      "åħ«": 1835,
      "Ġstr": 1836,
      "åĲĪä½ľ": 1837,
      "äºĳ": 1838,
      "åĬ³åĬ¨": 1839,
      "æīĢæľī": 1840,
      "Ġev": 1841,
      "ord": 1842,
      "çĸ«": 1843,
      "é¼": 1844,
      "Ġ19": 1845,
      "æĶ¯æĮģ": 1846,
      "Ġte": 1847,
      "è½»": 1848,
      "30": 1849,
      "//": 1850,
      "éĩĳèŀį": 1851,
      "rit": 1852,
      "çľ¼": 1853,
      "ail": 1854,
      "æĿ¥çļĦ": 1855,
      "Ġret": 1856,
      "åį°": 1857,
      "äº²": 1858,
      "ç¯": 1859,
      "ely": 1860,
      "å¸®": 1861,
      "çĹĩ": 1862,
      "ç»¼": 1863,
      "åįĬ": 1864,
      "ä¸ºäºĨ": 1865,
      "å¼Ģåıĳ": 1866,
      "ä»£è¡¨": 1867,
      "æ½": 1868,
      "âĢĿãĢĤ": 1869,
      "ä»¥ä¸Ĭ": 1870,
      "å¤®": 1871,
      "åĪ°äºĨ": 1872,
      "ject": 1873,
      "==": 1874,
      "éĩįçĤ¹": 1875,
      "ç§¯æŀģ": 1876,
      "æ¯į": 1877,
      "æ¨¡å¼ı": 1878,
      "æ¦Ĥ": 1879,
      "åħ¨éĿ¢": 1880,
      "ĠSt": 1881,
      "202": 1882,
      "äº«": 1883,
      "åĲ¬": 1884,
      "ä¹°": 1885,
      "è¿Ļæĺ¯": 1886,
      "åĢº": 1887,
      "æ¯Ĵ": 1888,
      "åı¥": 1889,
      "fere": 1890,
      "å¹¼": 1891,
      "åħ³äºİ": 1892,
      "æĭī": 1893,
      "Ġso": 1894,
      "éĴĪ": 1895,
      "ä»¤": 1896,
      "æ¯Ķè¾ĥ": 1897,
      "ck": 1898,
      "ose": 1899,
      "å®ŀè·µ": 1900,
      "åºĶè¯¥": 1901,
      "çİ°åľ¨": 1902,
      "au": 1903,
      "éĩĬ": 1904,
      "ç«ŀ": 1905,
      "å¹³åı°": 1906,
      "ings": 1907,
      "æ±ī": 1908,
      "æİ¨åĬ¨": 1909,
      "ç¬¬ä¸ī": 1910,
      "000": 1911,
      "æİ¨è¿Ľ": 1912,
      "ĠK": 1913,
      "Ġuse": 1914,
      "cess": 1915,
      "å®ĮæĪĲ": 1916,
      "è½½": 1917,
      "own": 1918,
      "ĊĊ": 1919,
      "ments": 1920,
      "åģ¥åº·": 1921,
      "èĳĹ": 1922,
      "æĿ¿": 1923,
      "äºļ": 1924,
      "Ġpart": 1925,
      "\":": 1926,
      "ph": 1927,
      "æĢ§çļĦ": 1928,
      "ä½Ļ": 1929,
      "éĶ®": 1930,
      "åĶ®": 1931,
      "æķ°åŃĹ": 1932,
      "18": 1933,
      "\")": 1934,
      "æľĿ": 1935,
      "reat": 1936,
      "åĲĪåĲĮ": 1937,
      "æ³¢": 1938,
      "åŁ¹åħ»": 1939,
      "æĹ¶åĢĻ": 1940,
      "ys": 1941,
      "Ġty": 1942,
      "Ġabout": 1943,
      "é¸": 1944,
      "æĿİ": 1945,
      "very": 1946,
      "å·¥ä¸ļ": 1947,
      "ount": 1948,
      "ä»į": 1949,
      "æĪĲæľ¬": 1950,
      "ä¸ĥ": 1951,
      "ĊĠĠĠĠĠĠĠĠĠĠĠĠĠĠĠ": 1952,
      "éĢĲ": 1953,
      "èĥĮ": 1954,
      "##": 1955,
      "Ġtime": 1956,
      "Â·": 1957,
      "æĮģç»Ń": 1958,
      "ç»ıèĲ¥": 1959,
      "è®¾å¤ĩ": 1960,
      "æ¤į": 1961,
      "åħ·ä½ĵ": 1962,
      "Ġwere": 1963,
      "èĻ½": 1964,
      "å¾ħ": 1965,
      "äºĪ": 1966,
      "çĽ´æİ¥": 1967,
      "è¿Ŀ": 1968,
      "æľºåĪ¶": 1969,
      "åħ¨çĲĥ": 1970,
      "Ġqu": 1971,
      "ç½ª": 1972,
      "åĽ°": 1973,
      "æ³ķéĻ¢": 1974,
      "æĿĤ": 1975,
      "è¿ĺæĺ¯": 1976,
      "åħ¸": 1977,
      "åħ±åĲĮ": 1978,
      "Ġstud": 1979,
      "äºĨè§£": 1980,
      "://": 1981,
      "ï½": 1982,
      "ĠThis": 1983,
      "æłĳ": 1984,
      "é²": 1985,
      "é¢ĳ": 1986,
      "ç»ĵæŀľ": 1987,
      "éĿŀå¸¸": 1988,
      "åĲĦç§į": 1989,
      "æĺ¯åĲ¦": 1990,
      "Ġpe": 1991,
      "èĨ": 1992,
      "ree": 1993,
      "æ°ĳæĹı": 1994,
      "çĿ£": 1995,
      "ĠV": 1996,
      "åĩ»": 1997,
      "Ġits": 1998,
      "æİª": 1999,
      "15": 2000,
      "çĶļ": 2001,
      "æīĺ": 2002,
      "ç¬¦": 2003,
      "ç»¼åĲĪ": 2004,
      "åį±": 2005,
      "éĶĻ": 2006,
      "æ¼Ķ": 2007,
      "ç»ĥ": 2008,
      "æī¾": 2009,
      "å½¢å¼ı": 2010,
      "éĵ¾": 2011,
      "å»ºçŃĳ": 2012,
      "èīºæľ¯": 2013,
      "è¿ĩç¨ĭä¸Ń": 2014,
      "ize": 2015,
      "å°Ħ": 2016,
      "ific": 2017,
      "rans": 2018,
      "æĸ°çļĦ": 2019,
      "å¯¼èĩ´": 2020,
      "ext": 2021,
      "éķĩ": 2022,
      "Ġmay": 2023,
      "ĠIt": 2024,
      "æĮ¥": 2025,
      "åĵª": 2026,
      "æī§è¡Į": 2027,
      "gr": 2028,
      "Ġthem": 2029,
      "ren": 2030,
      "ish": 2031,
      "ä¿Ŀéļľ": 2032,
      "ning": 2033,
      "æĹħ": 2034,
      "è¿Ľä¸ĢæŃ¥": 2035,
      "olog": 2036,
      "ä¹Ŀ": 2037,
      "æİĪ": 2038,
      "ä¿ĥè¿Ľ": 2039,
      "è®¡åĪĴ": 2040,
      "éĺ¶æ®µ": 2041,
      "tern": 2042,
      "å©": 2043,
      "éĩĩçĶ¨": 2044,
      "æĮīçħ§": 2045,
      "è¾¾åĪ°": 2046,
      "Ġup": 2047,
      "èĹ": 2048,
      "Ġli": 2049,
      "put": 2050,
      "ient": 2051,
      "ç´§": 2052,
      "we": 2053,
      "æĹ¢": 2054,
      "åīĤ": 2055,
      "Ġhel": 2056,
      "äººä»¬": 2057,
      "éĢĢ": 2058,
      "éģĹ": 2059,
      "åĿĹ": 2060,
      "Ġwho": 2061,
      "çĶ³è¯·": 2062,
      "Ġpr": 2063,
      "ç»¿": 2064,
      "ç£": 2065,
      "å®£": 2066,
      "ç»Ŀ": 2067,
      "æ³¨æĦı": 2068,
      "èĴ": 2069,
      "åºĵ": 2070,
      "æī©": 2071,
      "ç¬Ķ": 2072,
      "éħ¸": 2073,
      "name": 2074,
      "èİ·å¾Ĺ": 2075,
      "æĢİ": 2076,
      "Ġreturn": 2077,
      "Ġfe": 2078,
      "rib": 2079,
      "æ¶²": 2080,
      "æı¡": 2081,
      "ç¿": 2082,
      "é¢Ĩå¯¼": 2083,
      "èĭ¥": 2084,
      "cre": 2085,
      "Ġro": 2086,
      "ä»¥ä¸ĭ": 2087,
      "éĢłæĪĲ": 2088,
      "è¡¨çİ°": 2089,
      "åİŁåĽł": 2090,
      "èĮĥåĽ´": 2091,
      "ool": 2092,
      "è¡¨ç¤º": 2093,
      "ä¸ļåĬ¡": 2094,
      "Ġinto": 2095,
      "clud": 2096,
      "Ġ4": 2097,
      "app": 2098,
      "Ġ)": 2099,
      "çĩ": 2100,
      "èįī": 2101,
      "åĪ»": 2102,
      "æĴŃ": 2103,
      "çļĦåıĳå±ķ": 2104,
      "lic": 2105,
      "ser": 2106,
      "ener": 2107,
      "ä¸Ńå¤®": 2108,
      "Ġwhen": 2109,
      "æĺİç¡®": 2110,
      "eth": 2111,
      "åıĤä¸İ": 2112,
      "èĥŀ": 2113,
      "Ġ{": 2114,
      "è½¯": 2115,
      "ĠNone": 2116,
      "çĶŁæĢģ": 2117,
      "æĽ¾": 2118,
      "ä¸įä»ħ": 2119,
      "from": 2120,
      "(\"": 2121,
      "è¿½": 2122,
      "ä¸¤ä¸ª": 2123,
      "ds": 2124,
      "**": 2125,
      "åĨľä¸ļ": 2126,
      "åıĳå±ķçļĦ": 2127,
      "ll": 2128,
      "ä¼¼": 2129,
      ",\"": 2130,
      "åħ³éĶ®": 2131,
      "éĵ¶è¡Į": 2132,
      "Ġhis": 2133,
      "ark": 2134,
      "ä¸°": 2135,
      "=\"": 2136,
      "åĮ»çĸĹ": 2137,
      "æĬ¥åĳĬ": 2138,
      "åģĩ": 2139,
      "æĺ¥": 2140,
      "æŃ¦": 2141,
      "In": 2142,
      "æĢ¥": 2143,
      "æľīçļĦ": 2144,
      "èµĦéĩĳ": 2145,
      "Ġag": 2146,
      "çĲĨè§£": 2147,
      "éļıçĿĢ": 2148,
      "åıĭ": 2149,
      "è§ĦåĪĴ": 2150,
      "èģļ": 2151,
      "éĢģ": 2152,
      "å®Ī": 2153,
      "å¸ģ": 2154,
      "éĵģ": 2155,
      "Ġwork": 2156,
      "èĻĳ": 2157,
      "èĭı": 2158,
      "16": 2159,
      "åĢŁ": 2160,
      "èģĮä¸ļ": 2161,
      "ari": 2162,
      "é¾Ļ": 2163,
      "æĪĺçķ¥": 2164,
      "å¹´çļĦ": 2165,
      "çī¹åĪ«": 2166,
      "ays": 2167,
      "æ²»çĸĹ": 2168,
      "Ġover": 2169,
      "è§ĦèĮĥ": 2170,
      "Ġdif": 2171,
      "çĸ¾": 2172,
      "ĠCh": 2173,
      "ç¯ĩ": 2174,
      "éģ¿": 2175,
      "ise": 2176,
      "åĮĹäº¬": 2177,
      "åĿļæĮģ": 2178,
      "ä¼°": 2179,
      "åĳ³": 2180,
      "äººæīį": 2181,
      "ople": 2182,
      "åįļ": 2183,
      "ite": 2184,
      "è¿Ľåħ¥": 2185,
      "Ġsome": 2186,
      "æ¶ī": 2187,
      "che": 2188,
      "åĨ³å®ļ": 2189,
      "ä¿ĿéĻ©": 2190,
      "åĤ¨": 2191,
      "å½Ĵ": 2192,
      "ç«¥": 2193,
      "æĦıè¯Ĩ": 2194,
      "htt": 2195,
      "åģľ": 2196,
      "çĵ": 2197,
      "Ġem": 2198,
      "æľ¨": 2199,
      "è¿ĲåĬ¨": 2200,
      "åı¶": 2201,
      "lect": 2202,
      "velop": 2203,
      "te": 2204,
      "åĬ±": 2205,
      "ç»©": 2206,
      "èĦĳ": 2207,
      "åłĤ": 2208,
      "self": 2209,
      "éģĩ": 2210,
      "ove": 2211,
      "here": 2212,
      "èµĦäº§": 2213,
      "äººç±»": 2214,
      "Ġhow": 2215,
      "å¹¼åĦ¿": 2216,
      "éĴ±": 2217,
      "Ġunder": 2218,
      "Ġra": 2219,
      "åĪ¶éĢł": 2220,
      "Ġcol": 2221,
      "Ġdes": 2222,
      "èĢĮä¸Ķ": 2223,
      "æĵįä½ľ": 2224,
      "è§Ħæ¨¡": 2225,
      "ric": 2226,
      "ally": 2227,
      "æĸ¹æ¡Ī": 2228,
      "Ġthese": 2229,
      "ç»Ĩèĥŀ": 2230,
      "æĦ¿": 2231,
      "ĠAn": 2232,
      "str": 2233,
      "çĶŁçī©": 2234,
      "æł¸å¿ĥ": 2235,
      "get": 2236,
      "å·¦": 2237,
      "Ġthan": 2238,
      "åıªæľī": 2239,
      "æŃĮ": 2240,
      "ode": 2241,
      "æīįèĥ½": 2242,
      "äº¤æĺĵ": 2243,
      "å¤«": 2244,
      "ä»·æł¼": 2245,
      "åħħåĪĨ": 2246,
      "--------": 2247,
      "èĢģå¸Ī": 2248,
      "çĪ¶": 2249,
      "æĽ´å¤ļ": 2250,
      "ç¦ı": 2251,
      "å®Ŀ": 2252,
      "çĶ¨äºİ": 2253,
      "æĦıä¹ī": 2254,
      "ç¨³å®ļ": 2255,
      "çĮ®": 2256,
      "éĤ£ä¹Ī": 2257,
      "stem": 2258,
      "ities": 2259,
      "ä¹ĭä¸Ģ": 2260,
      "çĶļèĩ³": 2261,
      "Ġcons": 2262,
      "æ±½": 2263,
      "è°Ī": 2264,
      "å²ģ": 2265,
      "æĶ¶åħ¥": 2266,
      "ç©ºéĹ´": 2267,
      "æķ£": 2268,
      "oss": 2269,
      "alth": 2270,
      "val": 2271,
      "Ġbet": 2272,
      "è¯Ńè¨Ģ": 2273,
      "ĠY": 2274,
      "åĽłç´ł": 2275,
      "Ġact": 2276,
      "å¥¹": 2277,
      "çļĦéĩįè¦ģ": 2278,
      "ç¡®å®ļ": 2279,
      "çīĮ": 2280,
      "æĤ£èĢħ": 2281,
      "Ġnew": 2282,
      "ï¼ļâĢľ": 2283,
      "çĬ¯": 2284,
      "çļĦéĹ®é¢ĺ": 2285,
      "æİªæĸ½": 2286,
      "çĹĽ": 2287,
      "åħ°": 2288,
      "åħ¬åħ±": 2289,
      "åĨ²": 2290,
      "ç«ŀäºī": 2291,
      "å¸®åĬ©": 2292,
      "æ±¡": 2293,
      "Ġgo": 2294,
      "èĸ": 2295,
      "pon": 2296,
      "Ġneed": 2297,
      "åı³": 2298,
      "å®ĮåĸĦ": 2299,
      "ä¸Ńåįİ": 2300,
      "èģĶç½ĳ": 2301,
      "Ġthere": 2302,
      "åĲ¯": 2303,
      "ne": 2304,
      "æĮĩå¯¼": 2305,
      "è®¨": 2306,
      "å»¶": 2307,
      "ç¨ĭåºı": 2308,
      "å®Ĺ": 2309,
      "å¾ĹåĪ°": 2310,
      "æĽ²": 2311,
      "erm": 2312,
      "çłģ": 2313,
      "åİŁåĪĻ": 2314,
      "ĠâĢ": 2315,
      "row": 2316,
      "igh": 2317,
      "ä¹ĭåĲİ": 2318,
      "çĶ¨æĪ·": 2319,
      "æĻºèĥ½": 2320,
      "åħµ": 2321,
      "ook": 2322,
      "è®¸å¤ļ": 2323,
      "Ġbeen": 2324,
      "éĿł": 2325,
      "Ġ'": 2326,
      "å®¶åºŃ": 2327,
      "ï¼ģ": 2328,
      "Ġacc": 2329,
      "åĽ½åĨħ": 2330,
      "åĮºåŁŁ": 2331,
      "è¿ĺæľī": 2332,
      "âĶ": 2333,
      "ption": 2334,
      "Ġpeople": 2335,
      "Ġgr": 2336,
      "æĿ¥è¯´": 2337,
      "è´«": 2338,
      "çŁ¥éģĵ": 2339,
      "ç¥¨": 2340,
      "å¸Ŀ": 2341,
      "Ġhelp": 2342,
      "Ġour": 2343,
      "ç»ıéªĮ": 2344,
      "Ġval": 2345,
      "Ġspec": 2346,
      "ç½Ĺ": 2347,
      "irst": 2348,
      "ffect": 2349,
      "èĦ±": 2350,
      "å¸Į": 2351,
      "æ¬§": 2352,
      "å¾Ħ": 2353,
      "è¯¾ç¨ĭ": 2354,
      "é»ĳ": 2355,
      "åĳ¢": 2356,
      "ä¿ĿæĮģ": 2357,
      "Ġinst": 2358,
      "æİĮ": 2359,
      "ating": 2360,
      "14": 2361,
      "è¯¯": 2362,
      "èŃ": 2363,
      "Ġinclud": 2364,
      "å¿ĥçĲĨ": 2365,
      "çī¹èī²": 2366,
      "åĪĽéĢł": 2367,
      "çĻ»": 2368,
      "åŃ£": 2369,
      "....": 2370,
      "æķĳ": 2371,
      "æĭĽ": 2372,
      "éĺħ": 2373,
      "enc": 2374,
      "Ġyear": 2375,
      "ange": 2376,
      "ï¼İ": 2377,
      "è¡¡": 2378,
      "Ġkn": 2379,
      "åŁ¹è®Ń": 2380,
      "Ġsuch": 2381,
      "pect": 2382,
      "åģ¿": 2383,
      "è¶ħè¿ĩ": 2384,
      "ä»»åĬ¡": 2385,
      "ause": 2386,
      "èĻ½çĦ¶": 2387,
      "ä¹ħ": 2388,
      "è®¤è¯Ĩ": 2389,
      "13": 2390,
      "çī¹çĤ¹": 2391,
      "çļ®": 2392,
      "red": 2393,
      "çģµ": 2394,
      "Ġser": 2395,
      "æ£ĢæŁ¥": 2396,
      "å³": 2397,
      "çĶµåŃĲ": 2398,
      "oint": 2399,
      "éĨ": 2400,
      "Ġ5": 2401,
      "å®ŀéªĮ": 2402,
      "æ´¾": 2403,
      "ä¸įä¼ļ": 2404,
      "æľºåħ³": 2405,
      "ular": 2406,
      "Ġused": 2407,
      "è´·": 2408,
      "ç»Łä¸Ģ": 2409,
      "é¡º": 2410,
      "é£ŀ": 2411,
      "å¥Ĺ": 2412,
      "pro": 2413,
      "ä»İèĢĮ": 2414,
      "åĮĸçļĦ": 2415,
      "Ġany": 2416,
      "ç¨ĭåº¦": 2417,
      "åŁºéĩĳ": 2418,
      "Ġprov": 2419,
      "åįĸ": 2420,
      "åıĳæĮ¥": 2421,
      "ä¸Ģæ¬¡": 2422,
      "æ´²": 2423,
      "ä¹İ": 2424,
      "Ġrel": 2425,
      "åĨľæĿĳ": 2426,
      "æĸ¹åĲĳ": 2427,
      "Ġob": 2428,
      "sh": 2429,
      "æĹ¶æľŁ": 2430,
      "å·´": 2431,
      "åĪĺ": 2432,
      "åĲĥ": 2433,
      "æķĪæŀľ": 2434,
      "Ġno": 2435,
      "æĽ´åĬł": 2436,
      "60": 2437,
      "Ġform": 2438,
      "https": 2439,
      "éª¨": 2440,
      "æ¹ĸ": 2441,
      "èĽ": 2442,
      "å¤§å®¶": 2443,
      "èĥ½æºĲ": 2444,
      "Ġrec": 2445,
      "ç»į": 2446,
      "Ġdevelop": 2447,
      "æŀ¶": 2448,
      "rough": 2449,
      "æ±ĩ": 2450,
      "èµ·æĿ¥": 2451,
      "ility": 2452,
      "çļĦå¤§": 2453,
      "æĸĹ": 2454,
      "éĻĦ": 2455,
      "éĻĪ": 2456,
      "åıĸå¾Ĺ": 2457,
      "Ġtra": 2458,
      "åİĤ": 2459,
      "ä»»ä½ķ": 2460,
      "çĨŁ": 2461,
      "åĸľ": 2462,
      "ä¸įåı¯": 2463,
      "èĹı": 2464,
      "åį¡": 2465,
      "æĹłæ³ķ": 2466,
      "les": 2467,
      ":\"": 2468,
      "åĩıå°ĳ": 2469,
      "æĦıè§ģ": 2470,
      "æľªæĿ¥": 2471,
      "æĪĲåĬŁ": 2472,
      "æ¯Ķå¦Ĥ": 2473,
      "æŃ£ç¡®": 2474,
      "ä¸¥éĩį": 2475,
      "Ġdata": 2476,
      "ics": 2477,
      "æ¸Ĳ": 2478,
      "åıĬæĹ¶": 2479,
      "è´Łè´£": 2480,
      "io": 2481,
      "å§Ķåĳĺ": 2482,
      "åī§": 2483,
      "è°ĥæķ´": 2484,
      "port": 2485,
      "Ġmost": 2486,
      "Ġadd": 2487,
      "åī¯": 2488,
      "ative": 2489,
      "æ¯ķ": 2490,
      "ian": 2491,
      "Ġchild": 2492,
      "ä¾µ": 2493,
      "éĻįä½İ": 2494,
      "çĽ®çļĦ": 2495,
      "Ġac": 2496,
      "çĶ²": 2497,
      "çĽĸ": 2498,
      "ures": 2499,
      "åºĬ": 2500,
      "èĻļ": 2501,
      "Ġmodel": 2502,
      "ç»§ç»Ń": 2503,
      "par": 2504,
      "Ġrequ": 2505,
      "ample": 2506,
      "è·Ł": 2507,
      "Ġget": 2508,
      "è¶£": 2509,
      "å®¹æĺĵ": 2510,
      "è·Ŀ": 2511,
      "é¦Ĩ": 2512,
      "](": 2513,
      "éķ¿æľŁ": 2514,
      "iss": 2515,
      "ä¸»ä½ĵ": 2516,
      "é£Łåĵģ": 2517,
      "åħ³æ³¨": 2518,
      "Ġprodu": 2519,
      "åª": 2520,
      "ob": 2521,
      "çŃ¾": 2522,
      "å±ŀäºİ": 2523,
      "èĢĥèĻĳ": 2524,
      "åĪ¶å®ļ": 2525,
      "Ġbu": 2526,
      "ax": 2527,
      "åĪ¸": 2528,
      "ful": 2529,
      "25": 2530,
      "uring": 2531,
      "åĲĪçĲĨ": 2532,
      "ink": 2533,
      "é¦Ļ": 2534,
      "ĠUn": 2535,
      "åĪĳ": 2536,
      "def": 2537,
      "Ġind": 2538,
      "ç¢³": 2539,
      "ved": 2540,
      "ä¸Ģæł·": 2541,
      "èŃ¦": 2542,
      "Ġshould": 2543,
      "40": 2544,
      "Ġph": 2545,
      "âĶĢ": 2546,
      "ç¬¦åĲĪ": 2547,
      "éħĴ": 2548,
      "Ġoff": 2549,
      "å»ºè®®": 2550,
      "å°ģ": 2551,
      "è¯Ħä»·": 2552,
      "Ġsa": 2553,
      "Ġtw": 2554,
      "its": 2555,
      "Ġke": 2556,
      "17": 2557,
      "åıĹåĪ°": 2558,
      "åį·": 2559,
      "æľĢåĲİ": 2560,
      "è´µ": 2561,
      "Ġreg": 2562,
      "éº": 2563,
      "çĽĳçĿ£": 2564,
      "ç¾¤ä¼Ĺ": 2565,
      "100": 2566,
      "æĺİæĺ¾": 2567,
      "éĴĪå¯¹": 2568,
      "Ġlike": 2569,
      "Ġonly": 2570,
      "è®¢": 2571,
      "ä¼ĺåĬ¿": 2572,
      "å¥ĸ": 2573,
      "80": 2574,
      "è´¸": 2575,
      "èµĦæĸĻ": 2576,
      "éŃ": 2577,
      "æĹħæ¸¸": 2578,
      "è¯Ĭ": 2579,
      "ational": 2580,
      "ock": 2581,
      "é½": 2582,
      "ract": 2583,
      "çī©è´¨": 2584,
      "éĽ¶": 2585,
      "å¼ĢæĶ¾": 2586,
      "è¶ĭ": 2587,
      "ä¿Ŀè¯ģ": 2588,
      "éĩıçļĦ": 2589,
      "Ġass": 2590,
      "å·¨": 2591,
      "éī": 2592,
      "path": 2593,
      "Ġwhat": 2594,
      "åĶĲ": 2595,
      "å¼±": 2596,
      "éī´": 2597,
      "è°ĥæŁ¥": 2598,
      "Ġdiffere": 2599,
      "Ġset": 2600,
      "éĢı": 2601,
      "æĪı": 2602,
      "çĶ°": 2603,
      "Ġ201": 2604,
      "mer": 2605,
      "ased": 2606,
      "åĦ¿ç«¥": 2607,
      "ft": 2608,
      "éĩįå¤§": 2609,
      "Ġatt": 2610,
      "æĺ¯åľ¨": 2611,
      "ible": 2612,
      "Ġsystem": 2613,
      "Ġsupp": 2614,
      "ä¼ļè®®": 2615,
      "æĺ¾ç¤º": 2616,
      "å®Įåħ¨": 2617,
      "Ġthrough": 2618,
      "è°ĵ": 2619,
      "æĶ¹åıĺ": 2620,
      "èĪª": 2621,
      "oth": 2622,
      "çĻĮ": 2623,
      "èıĮ": 2624,
      "æĿ¾": 2625,
      "Ġinf": 2626,
      "è½®": 2627,
      "ä¸įåĲĮçļĦ": 2628,
      "é¼ĵ": 2629,
      "éĿĻ": 2630,
      "æħ¢": 2631,
      "fter": 2632,
      "å®ľ": 2633,
      "Ġpar": 2634,
      "äºĨä¸Ģ": 2635,
      "èĵ": 2636,
      "ç§Ģ": 2637,
      "ç½ļ": 2638,
      "æ¯Ľ": 2639,
      "çĽĺ": 2640,
      "æĪĲæŀľ": 2641,
      "åŃĶ": 2642,
      "ä½ľèĢħ": 2643,
      "Ġfirst": 2644,
      "ues": 2645,
      "ä¸įå¾Ĺ": 2646,
      "è®¿": 2647,
      "atch": 2648,
      "å¹ħ": 2649,
      "ç»ıè¿ĩ": 2650,
      "éĶĢåĶ®": 2651,
      "æĺ¯ä¸Ģä¸ª": 2652,
      "ä½ľåĵģ": 2653,
      "éĺ¿": 2654,
      "âĢĶâĢĶ": 2655,
      "è¿Ĳè¡Į": 2656,
      "ef": 2657,
      "ied": 2658,
      "```": 2659,
      "iel": 2660,
      "åĨ·": 2661,
      "ä¾§": 2662,
      "çĽ¸å¯¹": 2663,
      "æ°§": 2664,
      "ç¤¾ä¼ļä¸»ä¹ī": 2665,
      "Ġ--": 2666,
      "çİ°è±¡": 2667,
      "äº¡": 2668,
      "Ġ0": 2669,
      "å°¤": 2670,
      "å©ļ": 2671,
      "Ġim": 2672,
      "é¡¾": 2673,
      "ix": 2674,
      "ss": 2675,
      "æĸĩæĺİ": 2676,
      "åªĴ": 2677,
      "ick": 2678,
      "çĶŁåĳ½": 2679,
      "è¾ĳ": 2680,
      "çļĦäºĭ": 2681,
      "Ġnum": 2682,
      "ä»ĭç»į": 2683,
      "äºĴèģĶç½ĳ": 2684,
      "Ġsub": 2685,
      "ages": 2686,
      "ism": 2687,
      "è§¦": 2688,
      "Ġwould": 2689,
      "Ġtrans": 2690,
      "åĪ©çĽĬ": 2691,
      "ec": 2692,
      "Ġtest": 2693,
      "ç¼©": 2694,
      "è´¦": 2695,
      "çļĦæĹ¶åĢĻ": 2696,
      "als": 2697,
      "çī¹å¾ģ": 2698,
      "å¹´æĿ¥": 2699,
      "ä»ĸçļĦ": 2700,
      "arch": 2701,
      "å®½": 2702,
      "èĭ¦": 2703,
      "åĲĹ": 2704,
      "æ³Ľ": 2705,
      "å°ļ": 2706,
      "æ²»çĲĨ": 2707,
      "çĽĳç®¡": 2708,
      "ãĢĮ": 2709,
      "to": 2710,
      "ced": 2711,
      "tain": 2712,
      "åº§": 2713,
      "èµĦæľ¬": 2714,
      "ä¸°å¯Į": 2715,
      "Ġfun": 2716,
      "ron": 2717,
      "æ±½è½¦": 2718,
      "ä½ĵçļĦ": 2719,
      "åį«çĶŁ": 2720,
      "è¯¸": 2721,
      "ï¼ĮâĢľ": 2722,
      "çĬ¶æĢģ": 2723,
      "è¯´æĺİ": 2724,
      "Ġco": 2725,
      "ãĢį": 2726,
      "å¾ª": 2727,
      "ä»¥æĿ¥": 2728,
      "å¼ķèµ·": 2729,
      "é¦ĸåħĪ": 2730,
      "å¨ģ": 2731,
      "Ġhealth": 2732,
      "å®ĭ": 2733,
      "æĶ»": 2734,
      "èĨľ": 2735,
      "ç¤¼": 2736,
      "hed": 2737,
      "èĤī": 2738,
      "ç®Ģåįķ": 2739,
      "æ¸¯": 2740,
      "èĤ¥": 2741,
      "æ¬¢": 2742,
      "ribut": 2743,
      "ten": 2744,
      "ä¸ĸçºª": 2745,
      "äº¤éĢļ": 2746,
      "è®¾æĸ½": 2747,
      "äº¤æµģ": 2748,
      "rue": 2749,
      "åĬª": 2750,
      "Ġam": 2751,
      "èĢĥè¯ķ": 2752,
      "è£ģ": 2753,
      "ç»ĦæĪĲ": 2754,
      "ä¹ĭéĹ´çļĦ": 2755,
      "éĩįè¦ģçļĦ": 2756,
      "ines": 2757,
      "åŃ¦éĻ¢": 2758,
      "å¼ķå¯¼": 2759,
      "çĦ¶åĲİ": 2760,
      "çĸĳ": 2761,
      "æİ¥åıĹ": 2762,
      "å¢ŀå¼º": 2763,
      "åľŁåľ°": 2764,
      "çĺ": 2765,
      "è¯ģæĺİ": 2766,
      "èĦī": 2767,
      "äº¿åħĥ": 2768,
      "ç´¯": 2769,
      "æĿŁ": 2770,
      "ä¾ĭå¦Ĥ": 2771,
      "ç¼ĵ": 2772,
      "æĹ¥æľ¬": 2773,
      "ween": 2774,
      "åĨĮ": 2775,
      "Ġhad": 2776,
      "æ²Ļ": 2777,
      "åħ¶å®ŀ": 2778,
      "åľĨ": 2779,
      "èĩªèº«": 2780,
      "æ··": 2781,
      "æĭ¥": 2782,
      "æĢİä¹Ī": 2783,
      "è¿ĲçĶ¨": 2784,
      "ĠCon": 2785,
      "ting": 2786,
      "çº·": 2787,
      "æĺ¯ä¸Ģ": 2788,
      "aw": 2789,
      "æ·±åħ¥": 2790,
      "å°±ä¸ļ": 2791,
      "%,": 2792,
      "cept": 2793,
      "åħļçļĦ": 2794,
      "éĩĩåıĸ": 2795,
      "âĶĢâĶĢ": 2796,
      "åĢį": 2797,
      "irect": 2798,
      "åĪļ": 2799,
      "æľŁéĹ´": 2800,
      "ç¡¬": 2801,
      "å¤ı": 2802,
      "ç§ģ": 2803,
      "ĊĠĠĠĠĠĠĠĠĠĠĠĠĠĠĠĠ": 2804,
      "vir": 2805,
      "æĬĵ": 2806,
      "ç¹": 2807,
      "åŃ¦ç§ĳ": 2808,
      "åķĨä¸ļ": 2809,
      "å¥ĩ": 2810,
      "éĺħè¯»": 2811,
      "æĸĩä»¶": 2812,
      "Ġmany": 2813,
      "Ġinv": 2814,
      "Ġdi": 2815,
      "èģĶç³»": 2816,
      "éĹ»": 2817,
      "hat": 2818,
      "éĢĶ": 2819,
      "éļĲ": 2820,
      "çĩĥ": 2821,
      "èĲ½å®ŀ": 2822,
      "åĬªåĬĽ": 2823,
      "åı«": 2824,
      "åĪĨåĪ«": 2825,
      "æ¡Īä»¶": 2826,
      "ä¸ĵå®¶": 2827,
      "çļĦæĥħåĨµ": 2828,
      "èĥľ": 2829,
      "ble": 2830,
      "Ġrem": 2831,
      "å®ĥä»¬": 2832,
      "ãĢĲ": 2833,
      "åĳĺå·¥": 2834,
      "ï¼īï¼Į": 2835,
      "æĺł": 2836,
      "ä¾Ŀæ³ķ": 2837,
      "Ġmake": 2838,
      "çľŁæŃ£": 2839,
      "ç§Ł": 2840,
      "24": 2841,
      "å¹¶ä¸Ķ": 2842,
      "æĶ¯ä»ĺ": 2843,
      "åĬŀæ³ķ": 2844,
      "è¯Ħä¼°": 2845,
      "ç³ĸ": 2846,
      "Ġbetween": 2847,
      "ĊĊĠĠĠĠĠĠĠ": 2848,
      "thon": 2849,
      "ä¹¡æĿĳ": 2850,
      "arn": 2851,
      "çī©çļĦ": 2852,
      "Ġgener": 2853,
      "read": 2854,
      "è¯¢": 2855,
      "è´´": 2856,
      "å½ĵæĹ¶": 2857,
      "ious": 2858,
      "æ°¸": 2859,
      "è¡ĮåĬ¨": 2860,
      "ower": 2861,
      "ork": 2862,
      "æĩ": 2863,
      "ãĢĳ": 2864,
      "Ġfol": 2865,
      "ets": 2866,
      "çĤİ": 2867,
      "ng": 2868,
      "ä¹±": 2869,
      "ä¸Ĭæµ·": 2870,
      "ä¹Łæľī": 2871,
      "åĬĽéĩı": 2872,
      "åģı": 2873,
      "æĭŁ": 2874,
      "åıĤåĬł": 2875,
      "æıı": 2876,
      "ä½Ľ": 2877,
      "æĺ¯æĮĩ": 2878,
      "ä¸įè¦ģ": 2879,
      "é¥®": 2880,
      "è´¢æĶ¿": 2881,
      "ug": 2882,
      "çĸ¾çĹħ": 2883,
      "å´": 2884,
      "Ġrun": 2885,
      "orch": 2886,
      "å°±ä¼ļ": 2887,
      "æŃ£å¸¸": 2888,
      "éĺ»": 2889,
      "æķĪçİĩ": 2890,
      "Ġ\"\"\"": 2891,
      "ife": 2892,
      "up": 2893,
      "æĿĥåĪ©": 2894,
      "æ¥¼": 2895,
      "è®¼": 2896,
      "å½©": 2897,
      "90": 2898,
      "çģ¾": 2899,
      "Ġresult": 2900,
      "åĬĽçļĦ": 2901,
      "Ġdet": 2902,
      "äº¦": 2903,
      "Ġinter": 2904,
      "æĸĩç«ł": 2905,
      "æ»¡è¶³": 2906,
      "æĹ§": 2907,
      "gan": 2908,
      "chn": 2909,
      "éĽĨä¸Ń": 2910,
      "çĥĪ": 2911,
      "ç¹ģ": 2912,
      "Ġ6": 2913,
      "çĭ¬ç«ĭ": 2914,
      "Ġtwo": 2915,
      "erg": 2916,
      "åıĳå¸ĥ": 2917,
      "æĳĦ": 2918,
      "Ġel": 2919,
      "å¯¹è±¡": 2920,
      "èĢħçļĦ": 2921,
      "æ¦Ĥå¿µ": 2922,
      "æĢĢ": 2923,
      "éĿ©åĳ½": 2924,
      "å¸ĮæľĽ": 2925,
      "æĮĩåĩº": 2926,
      "Ġsur": 2927,
      "åĵģçīĮ": 2928,
      "æ´ĭ": 2929,
      "ä¸ĩåħĥ": 2930,
      "åĳĪ": 2931,
      "ä½ĵçİ°": 2932,
      "Ġexper": 2933,
      "æľĢé«ĺ": 2934,
      "åģļå¥½": 2935,
      "å¹²éĥ¨": 2936,
      "co": 2937,
      "è¯īè®¼": 2938,
      "æĬĺ": 2939,
      "æĮ¯": 2940,
      "è¿ĻéĩĮ": 2941,
      "å±ĭ": 2942,
      "model": 2943,
      "éģ¿åħį": 2944,
      "Ġprocess": 2945,
      "åĿı": 2946,
      "Ġhigh": 2947,
      "äºĭä¸ļ": 2948,
      "å²Ĺ": 2949,
      "åĪĨä¸º": 2950,
      "Ġwell": 2951,
      "viron": 2952,
      "éĻĨ": 2953,
      "èĩªçĶ±": 2954,
      "æķ´ä¸ª": 2955,
      "è§£éĩĬ": 2956,
      "Ġcre": 2957,
      "çľĭåĪ°": 2958,
      "è´¯": 2959,
      "æİĮæı¡": 2960,
      "è½¯ä»¶": 2961,
      "Ġaut": 2962,
      "è¡¨è¾¾": 2963,
      "yn": 2964,
      "ature": 2965,
      "Ġbl": 2966,
      "åŃ¦çĶŁçļĦ": 2967,
      "æĥ¯": 2968,
      "æģ¶": 2969,
      "Ġ->": 2970,
      "å§Ķåĳĺä¼ļ": 2971,
      "éĴ¢": 2972,
      "70": 2973,
      "ience": 2974,
      "éģį": 2975,
      "åĩºçļĦ": 2976,
      "èĪŀ": 2977,
      "å·¥åħ·": 2978,
      "éķľ": 2979,
      "äº®": 2980,
      "æ¯ıä¸ª": 2981,
      "ern": 2982,
      "Ġart": 2983,
      "æī¿æĭħ": 2984,
      "æħ§": 2985,
      "åĮ»éĻ¢": 2986,
      "ä¸Ģèµ·": 2987,
      "éŁ³ä¹Ĳ": 2988,
      "æ±ł": 2989,
      "Ġbec": 2990,
      "æľĢç»Ī": 2991,
      "æľ«": 2992,
      "éĢļå¸¸": 2993,
      "æķ´ä½ĵ": 2994,
      "çİ°å®ŀ": 2995,
      "æ®Ĭ": 2996,
      "çļĦåŁºç¡Ģ": 2997,
      "ç©¿": 2998,
      "å¤įæĿĤ": 2999,
      "åĬłå¿«": 3000,
      "é¾Ħ": 3001,
      "æ®ĭ": 3002,
      "ĠRe": 3003,
      "åŁºäºİ": 3004,
      "ç§°ä¸º": 3005,
      "æ±¡æŁĵ": 3006,
      "æŀĦå»º": 3007,
      "äººæ°ĳæ³ķéĻ¢": 3008,
      "éĴŁ": 3009,
      "äººåı£": 3010,
      "éľ²": 3011,
      "é±": 3012,
      "å®ģ": 3013,
      "Ġwhere": 3014,
      "å¿ħè¦ģ": 3015,
      "èĮ¶": 3016,
      "æĪĳä»¬çļĦ": 3017,
      "Ġusing": 3018,
      "æľīéĻĲ": 3019,
      "é±¼": 3020,
      "åĺ": 3021,
      "æļ´": 3022,
      "åĲİçļĦ": 3023,
      "ç»¿èī²": 3024,
      "ä¸ĭéĻį": 3025,
      "Ġvari": 3026,
      "åİĭåĬĽ": 3027,
      "====": 3028,
      "æİ¢ç´¢": 3029,
      "Th": 3030,
      "åĳ¼": 3031,
      "èĭĹ": 3032,
      "èģĶåĲĪ": 3033,
      "å¯»": 3034,
      "åĩºçīĪ": 3035,
      "å¼ºè°ĥ": 3036,
      "åıªæĺ¯": 3037,
      "çļĦæĸ°": 3038,
      "ç»Łè®¡": 3039,
      "ä¾Ŀæį®": 3040,
      "æķħäºĭ": 3041,
      "æĸĩåŃ¦": 3042,
      "æĻļ": 3043,
      "ists": 3044,
      "åıĬåħ¶": 3045,
      "____": 3046,
      "ç¦ģ": 3047,
      "Ġsign": 3048,
      "æ½ľ": 3049,
      "ä¸įè¶³": 3050,
      "Ġsm": 3051,
      "ä»ª": 3052,
      "ä¼ĳ": 3053,
      "åĩºäºĨ": 3054,
      "Ġext": 3055,
      "ĠHe": 3056,
      "ĠâĢĵ": 3057,
      "Ġ.": 3058,
      "Ġfl": 3059,
      "ential": 3060,
      "åĪĽä¸ļ": 3061,
      "ered": 3062,
      "ç¤¾åĮº": 3063,
      "ç»´æĬ¤": 3064,
      "ruct": 3065,
      "wn": 3066,
      "éĢŁåº¦": 3067,
      "çĥŁ": 3068,
      "æĢĿç»´": 3069,
      "å®¶éķ¿": 3070,
      "ices": 3071,
      "ology": 3072,
      "å·Ŀ": 3073,
      "å®¢æĪ·": 3074,
      "ever": 3075,
      "èĢĮæĺ¯": 3076,
      "ror": 3077,
      "çļĩ": 3078,
      "ural": 3079,
      "èĶ": 3080,
      "ç¥ĸ": 3081,
      "åķĨåĵģ": 3082,
      "æ¶¦": 3083,
      "Ġche": 3084,
      "å±¥": 3085,
      "è·¨": 3086,
      "æŀĦæĪĲ": 3087,
      "ade": 3088,
      "æĮĩæłĩ": 3089,
      "å¹¿æ³Ľ": 3090,
      "å¾Ģå¾Ģ": 3091,
      "éĻ¤äºĨ": 3092,
      "ç³»åĪĹ": 3093,
      "èĩªæĪĳ": 3094,
      "ä¹īåĬ¡": 3095,
      "è¦": 3096,
      "ä¸ĢçĽ´": 3097,
      "ä¼Ł": 3098,
      "çļĦé«ĺ": 3099,
      "å°¤åħ¶": 3100,
      "çļĦå½±åĵį": 3101,
      "åıįåºĶ": 3102,
      "è¶ĬæĿ¥": 3103,
      "åİļ": 3104,
      "å¿«éĢŁ": 3105,
      "Ġpol": 3106,
      "æ²Ł": 3107,
      "è¶ĬæĿ¥è¶Ĭ": 3108,
      "Ġdep": 3109,
      "fore": 3110,
      "Ġdifferent": 3111,
      "å·¥èµĦ": 3112,
      "old": 3113,
      "æĬĢèĥ½": 3114,
      "oy": 3115,
      "Ġincre": 3116,
      "å·¦åı³": 3117,
      "ask": 3118,
      "å¹¶ä¸į": 3119,
      "å°Ĭ": 3120,
      "arm": 3121,
      "Ġpers": 3122,
      "Ġrese": 3123,
      "è®ºæĸĩ": 3124,
      "ä¼ĺåĮĸ": 3125,
      "åºŁ": 3126,
      "ä¹¦è®°": 3127,
      "é²ľ": 3128,
      "æĢĿèĢĥ": 3129,
      "æĪĲç«ĭ": 3130,
      "æĢ§åĴĮ": 3131,
      "å¼¹": 3132,
      "formation": 3133,
      "import": 3134,
      "iew": 3135,
      "aking": 3136,
      "æ£Ģæµĭ": 3137,
      "ä¸īä¸ª": 3138,
      "Ġeffect": 3139,
      "çº¸": 3140,
      "ä¸ºä»Ģä¹Ī": 3141,
      "vent": 3142,
      "ew": 3143,
      "Ġpres": 3144,
      "èıľ": 3145,
      "æī¬": 3146,
      "type": 3147,
      "è®°å½ķ": 3148,
      "é¡¶": 3149,
      "config": 3150,
      "éĽ¨": 3151,
      "è®¾ç½®": 3152,
      "ä¾ĽåºĶ": 3153,
      "æĭ¿": 3154,
      "çŁ¿": 3155,
      "ution": 3156,
      "æĽ°": 3157,
      "Ġmain": 3158,
      "çģ¯": 3159,
      "ily": 3160,
      "ç¬¬åĽĽ": 3161,
      "ä¼łæĴŃ": 3162,
      "pr": 3163,
      "Ġsk": 3164,
      "ash": 3165,
      "éĺ´": 3166,
      "ä¿Ĺ": 3167,
      "åĩĨå¤ĩ": 3168,
      "Ġ10": 3169,
      "cent": 3170,
      "Ġloc": 3171,
      "å®ļçļĦ": 3172,
      "éĿ¢ç§¯": 3173,
      "ument": 3174,
      "è§Ĵåº¦": 3175,
      "å½»": 3176,
      "ä¸Ģæĸ¹éĿ¢": 3177,
      "è´¹çĶ¨": 3178,
      "æķĻæİĪ": 3179,
      "éĩįè§Ĩ": 3180,
      "ç¡®ä¿Ŀ": 3181,
      "Ġcall": 3182,
      "åįıè®®": 3183,
      "è¿Ļæł·çļĦ": 3184,
      "Ġ200": 3185,
      "ward": 3186,
      "çļĦä¸»è¦ģ": 3187,
      "éĩİ": 3188,
      "æķ°éĩı": 3189,
      "åĽ¢éĺŁ": 3190,
      "ĠPro": 3191,
      "æ¯ķä¸ļ": 3192,
      "çīĽ": 3193,
      "not": 3194,
      "Ġeach": 3195,
      "è§Ĥå¯Ł": 3196,
      "2020": 3197,
      "çĽ¸åºĶ": 3198,
      "ody": 3199,
      "æ¶īåıĬ": 3200,
      "ä½ĵèĤ²": 3201,
      "å¡ĳ": 3202,
      "æ¡¥": 3203,
      "ä½įç½®": 3204,
      "æ¨¡åŀĭ": 3205,
      "Ġcould": 3206,
      "ons": 3207,
      "ins": 3208,
      "æīĭæ®µ": 3209,
      "uc": 3210,
      "uch": 3211,
      "ov": 3212,
      "æķ°åŃ¦": 3213,
      "],": 3214,
      "å·¥ä½ľçļĦ": 3215,
      "æĤ¨": 3216,
      "é¹": 3217,
      "çĦ¶èĢĮ": 3218,
      "åĽ°éļ¾": 3219,
      "æĿ¥çľĭ": 3220,
      "ection": 3221,
      "ç²ī": 3222,
      "ä¼´": 3223,
      "éĥ½æľī": 3224,
      "è´¥": 3225,
      "çİī": 3226,
      "èĢ³": 3227,
      "èµĶ": 3228,
      "pos": 3229,
      "åĨħéĥ¨": 3230,
      "Ġdist": 3231,
      "ically": 3232,
      "æ¹¾": 3233,
      "ases": 3234,
      "çĲĨå¿µ": 3235,
      "ä¸ºä¸»": 3236,
      "ized": 3237,
      "èĽĭ": 3238,
      "Ġfollow": 3239,
      "æĺ¯ä¸Ģç§į": 3240,
      "Ġåľ¨": 3241,
      "è¸": 3242,
      "æĮĳ": 3243,
      "çļĦå·¥ä½ľ": 3244,
      "ä»Ĭå¹´": 3245,
      "Ġcent": 3246,
      "Ġwater": 3247,
      "ident": 3248,
      "å¤ľ": 3249,
      "22": 3250,
      "æĿĢ": 3251,
      "ä¹ı": 3252,
      "ts": 3253,
      "æī¶": 3254,
      "Ġpat": 3255,
      "å¦ĤæŃ¤": 3256,
      "èµĽ": 3257,
      "eng": 3258,
      "ä¹ĭåīį": 3259,
      "ç±»åŀĭ": 3260,
      "å±ħæ°ĳ": 3261,
      "Ġworld": 3262,
      "æ¢°": 3263,
      "æ¸©åº¦": 3264,
      "å¤ļæķ°": 3265,
      "åĲĽ": 3266,
      "Ġfound": 3267,
      "çģŃ": 3268,
      "å¸Ń": 3269,
      "Ġhum": 3270,
      "nce": 3271,
      "ants": 3272,
      "æ¥ļ": 3273,
      "åĩĢ": 3274,
      "Ġ_": 3275,
      "åĪº": 3276,
      "å¹³åĿĩ": 3277,
      "æĻºæħ§": 3278,
      "çĬ¯ç½ª": 3279,
      "Ġher": 3280,
      "èĢĹ": 3281,
      "æĶ¹åĸĦ": 3282,
      "åı¸æ³ķ": 3283,
      "è´¸æĺĵ": 3284,
      "vice": 3285,
      "Ġmed": 3286,
      "å®£ä¼ł": 3287,
      "æł¹æľ¬": 3288,
      "èľ": 3289,
      "version": 3290,
      "çĹħæ¯Ĵ": 3291,
      "åĬ¨çī©": 3292,
      "è¶ĭåĬ¿": 3293,
      "Ġname": 3294,
      "æľºä¼ļ": 3295,
      "Ġknow": 3296,
      "æ²¿": 3297,
      "ç½²": 3298,
      "ited": 3299,
      "æŃ£åľ¨": 3300,
      "Ġyears": 3301,
      "ç§ĭ": 3302,
      "ãĢĭï¼Į": 3303,
      "èŀįåĲĪ": 3304,
      "Ġcar": 3305,
      "çĽĽ": 3306,
      "Ġfact": 3307,
      "é«ĺæł¡": 3308,
      "çĦ¦": 3309,
      "å¸¦æĿ¥": 3310,
      "PI": 3311,
      "å½ĵäºĭ": 3312,
      "åıįæĺł": 3313,
      "çī¹æ®Ĭ": 3314,
      "Ġafter": 3315,
      "Ġsee": 3316,
      "ethod": 3317,
      "åħ¨éĥ¨": 3318,
      "ç»ķ": 3319,
      "èº«ä½ĵ": 3320,
      "Ġrespon": 3321,
      "è´§å¸ģ": 3322,
      "è¿ĩåİ»": 3323,
      "Con": 3324,
      "åºĹ": 3325,
      "æ°ı": 3326,
      "åľ¨äºİ": 3327,
      "ray": 3328,
      "è¿ģ": 3329,
      "æī£": 3330,
      "èª": 3331,
      "Ġlead": 3332,
      "Ġav": 3333,
      "çºł": 3334,
      "æŃ¤å¤ĸ": 3335,
      "ä¸¥æł¼": 3336,
      "é½Ĳ": 3337,
      "vironment": 3338,
      "æ²ī": 3339,
      "æĸ½å·¥": 3340,
      "åĵªäºĽ": 3341,
      "æĥł": 3342,
      "è®¡ç®Ĺæľº": 3343,
      "åªĴä½ĵ": 3344,
      "...": 3345,
      "Ġtyp": 3346,
      "è¯ĳ": 3347,
      "Ġthen": 3348,
      "ety": 3349,
      "ä¼ģä¸ļçļĦ": 3350,
      "ull": 3351,
      "ness": 3352,
      "åĮĸåŃ¦": 3353,
      "çĳ": 3354,
      "éĿ¢å¯¹": 3355,
      "ma": 3356,
      "èĩªä¸»": 3357,
      "æĭĵ": 3358,
      "Ġdec": 3359,
      "æľĭ": 3360,
      "å½ĵçĦ¶": 3361,
      "ç²®": 3362,
      "ands": 3363,
      "Ġtechn": 3364,
      "å½ĵåīį": 3365,
      "ource": 3366,
      "Ġeven": 3367,
      "ä¸ľè¥¿": 3368,
      "éĢĤåºĶ": 3369,
      "å°¼": 3370,
      "å®«": 3371,
      "ually": 3372,
      "è°ģ": 3373,
      "æĻ®éĢļ": 3374,
      "oci": 3375,
      "the": 3376,
      "ä¸»åĬ¨": 3377,
      "ault": 3378,
      "æĢ§èĥ½": 3379,
      "ç¬¬åįģ": 3380,
      "è¦Ĩ": 3381,
      "Ġent": 3382,
      "å¹´ä»£": 3383,
      "åľ°ä½į": 3384,
      "èĩªåĬ¨": 3385,
      "ĠWe": 3386,
      "çĸ«æĥħ": 3387,
      "ield": 3388,
      "çĻ»è®°": 3389,
      "åĪĨç±»": 3390,
      "ĠIf": 3391,
      "ms": 3392,
      "Ġjust": 3393,
      "é«ĺçļĦ": 3394,
      "èį£": 3395,
      "çĶ·": 3396,
      "æ¯Ķä¾ĭ": 3397,
      "gs": 3398,
      "Ġgrou": 3399,
      "ä¸»é¢ĺ": 3400,
      "åĬłå·¥": 3401,
      "Ġcur": 3402,
      "å¤§éĩı": 3403,
      "ä»Ĭå¤©": 3404,
      "åŃĻ": 3405,
      "Ġlong": 3406,
      "åĨľæ°ĳ": 3407,
      "äºĭä»¶": 3408,
      "å¥ĭ": 3409,
      "ä¹Łä¸į": 3410,
      "è¿ĳå¹³": 3411,
      "æľºåĻ¨": 3412,
      "è´¢äº§": 3413,
      "Ġtrain": 3414,
      "ä¹łæĥ¯": 3415,
      "çŃ¹": 3416,
      "çĽ¸äºĴ": 3417,
      "é¼ĵåĬ±": 3418,
      "Ġway": 3419,
      "èĴĻ": 3420,
      "åºĦ": 3421,
      "ä¹łè¿ĳå¹³": 3422,
      "å¼ºåĮĸ": 3423,
      "ĠAr": 3424,
      "éĹ®é¢ĺçļĦ": 3425,
      "æĦŁæŁĵ": 3426,
      "æ³ķè§Ħ": 3427,
      "ä¸Ńå°ı": 3428,
      "ç¿»": 3429,
      "%.": 3430,
      "æľīäºĽ": 3431,
      "è´¡": 3432,
      "è®°èĢħ": 3433,
      "Ġread": 3434,
      "æ´ŀ": 3435,
      "åģļåĪ°": 3436,
      "éĿ¢çļĦ": 3437,
      "ran": 3438,
      "meric": 3439,
      "æĿ¥èĩª": 3440,
      "éĢĲæ¸Ĳ": 3441,
      "æ¹¿": 3442,
      "li": 3443,
      "éģµ": 3444,
      "Ġ8": 3445,
      "Ġed": 3446,
      "ç¼ĺ": 3447,
      "æµª": 3448,
      "æĿ¥æºĲ": 3449,
      "23": 3450,
      "èļ": 3451,
      "ĠCom": 3452,
      "æĭ¥æľī": 3453,
      "inal": 3454,
      "æĭį": 3455,
      "ives": 3456,
      "åıĤèĢĥ": 3457,
      "ator": 3458,
      "æĬķåħ¥": 3459,
      "dition": 3460,
      "ä¿¡åı·": 3461,
      "Ġsupport": 3462,
      "Ġbel": 3463,
      "äºĭå®ŀ": 3464,
      "Ġevery": 3465,
      "åĬ¨åĬĽ": 3466,
      "æľĢå¤§": 3467,
      "ç¼´": 3468,
      "chool": 3469,
      "å¤Ħäºİ": 3470,
      "å§ĵ": 3471,
      "åĩºæĿ¥": 3472,
      "åĲĮåŃ¦": 3473,
      "ä¸ĵåĪ©": 3474,
      "ense": 3475,
      "Ġca": 3476,
      "ples": 3477,
      "Ġear": 3478,
      "ä¸ĭçļĦ": 3479,
      "åĿĲ": 3480,
      "è§ĦåĪĻ": 3481,
      "ä¸½": 3482,
      "ä»¥åĲİ": 3483,
      "æ®ĸ": 3484,
      "led": 3485,
      "tt": 3486,
      "Ġcount": 3487,
      "ä½ľä¸ļ": 3488,
      "éĻĲåĪ¶": 3489,
      "Ġ$": 3490,
      "å®īæİĴ": 3491,
      "comm": 3492,
      "æĽ¿": 3493,
      "21": 3494,
      "ĠçļĦ": 3495,
      "åįıè°ĥ": 3496,
      "ames": 3497,
      "ä¼ĺç§Ģ": 3498,
      "çī©çĲĨ": 3499,
      "Ġexpl": 3500,
      "å±Ĭ": 3501,
      "çĶŁçļĦ": 3502,
      "åĵ²": 3503,
      "è®¤å®ļ": 3504,
      "Ġimportant": 3505,
      "æĬµ": 3506,
      "åĶ¯": 3507,
      "éĽĦ": 3508,
      "æĸ¹éĿ¢çļĦ": 3509,
      "ublic": 3510,
      "Ġcor": 3511,
      "åĪ¤æĸŃ": 3512,
      "é¡µ": 3513,
      "æī©å¤§": 3514,
      "atas": 3515,
      "å¼ĥ": 3516,
      "åĪĨå¸ĥ": 3517,
      "Ġcomple": 3518,
      "å³°": 3519,
      "ç¢į": 3520,
      "çº¯": 3521,
      "åĢ¾": 3522,
      "199": 3523,
      "è¾ħ": 3524,
      "28": 3525,
      "ml": 3526,
      "çļĦæĸ¹å¼ı": 3527,
      "ves": 3528,
      "æ´ģ": 3529,
      "çħ¤": 3530,
      "åı¦å¤ĸ": 3531,
      "\",\"": 3532,
      "ides": 3533,
      "air": 3534,
      "æ´Ĺ": 3535,
      "Ġconfig": 3536,
      "ç»ıå¸¸": 3537,
      "è°¢": 3538,
      "raph": 3539,
      "çĪ¶æ¯į": 3540,
      "åĨł": 3541,
      "Ġright": 3542,
      "è¿¹": 3543,
      "Ġwrit": 3544,
      "ä½łçļĦ": 3545,
      "Ġbecause": 3546,
      "Ġlist": 3547,
      "åĪ©äºİ": 3548,
      "è´·æ¬¾": 3549,
      "pre": 3550,
      "åįģåĪĨ": 3551,
      "æľĭåıĭ": 3552,
      "åĩĿ": 3553,
      "åŃ¦æľ¯": 3554,
      "Ġtype": 3555,
      "æľ¬èº«": 3556,
      "æ¶¨": 3557,
      "Ġend": 3558,
      "Ġclass": 3559,
      "Ġdoes": 3560,
      "Ġcommun": 3561,
      "gram": 3562,
      "Ġmy": 3563,
      "æĪĲéķ¿": 3564,
      "è¯¾åłĤ": 3565,
      "Ġmin": 3566,
      "æĢ»ç»ĵ": 3567,
      "ather": 3568,
      "çłĶåıĳ": 3569,
      "è®¨è®º": 3570,
      "è§ĤçĤ¹": 3571,
      "ä¹Ļ": 3572,
      "å®ŀè¡Į": 3573,
      "èĦļ": 3574,
      "åıªè¦ģ": 3575,
      "ä¸įè¿ĩ": 3576,
      "stand": 3577,
      "èĤ¿": 3578,
      "âĢ¦âĢ¦âĢ¦âĢ¦": 3579,
      "Ġinformation": 3580,
      "Ġown": 3581,
      "éģĵå¾·": 3582,
      "Ġprint": 3583,
      "ç»ª": 3584,
      "åĿĢ": 3585,
      "äºĮåįģ": 3586,
      "Ġthose": 3587,
      "åıĮæĸ¹": 3588,
      "æķı": 3589,
      "Ġchildren": 3590,
      "æĹłè®º": 3591,
      "çİ¯èĬĤ": 3592,
      "é©±": 3593,
      "Ġexample": 3594,
      "éĽĨåĽ¢": 3595,
      "Ġlevel": 3596,
      "èĢĮè¨Ģ": 3597,
      "æ¬²": 3598,
      "çļĦåŁºæľ¬": 3599,
      "æ¢¦": 3600,
      "ision": 3601,
      "Ġref": 3602,
      "èĻ«": 3603,
      "çĬ¶åĨµ": 3604,
      "',": 3605,
      "ä¸Ģå®ļçļĦ": 3606,
      "è£Ĥ": 3607,
      "ĠEx": 3608,
      "åĢĴ": 3609,
      "Ġ7": 3610,
      "ä»İäºĭ": 3611,
      "æł·çļĦ": 3612,
      "ale": 3613,
      "Ġdirect": 3614,
      "Ġduring": 3615,
      "Ġ*": 3616,
      "è¿ħ": 3617,
      "Ġback": 3618,
      "çĶ¨çļĦ": 3619,
      "Ġvery": 3620,
      "Ġmet": 3621,
      "åħ´è¶£": 3622,
      "éĹŃ": 3623,
      "å®ĥçļĦ": 3624,
      "è®Ńç»ĥ": 3625,
      "Ġï¼Į": 3626,
      "St": 3627,
      "Ġfind": 3628,
      "å²Ľ": 3629,
      "æ¢ģ": 3630,
      "Ġmon": 3631,
      "ape": 3632,
      "æ¾": 3633,
      "åħ·å¤ĩ": 3634,
      "Ġbuild": 3635,
      "åħ¼": 3636,
      "çĽ¾": 3637,
      "éĿ¢ä¸´": 3638,
      "æ¡£": 3639,
      "çľŁå®ŀ": 3640,
      "ä»ĸä»¬çļĦ": 3641,
      "Ġstart": 3642,
      "èĥ¡": 3643,
      "æķĻæĿĲ": 3644,
      "ç¾İåħĥ": 3645,
      "Ġmod": 3646,
      "size": 3647,
      "è¿İ": 3648,
      "rol": 3649,
      "å¤ļç§į": 3650,
      "æĿ¨": 3651,
      "Ġlife": 3652,
      "ç´łè´¨": 3653,
      "Ġfood": 3654,
      "Ġrequire": 3655,
      "è¯ģæį®": 3656,
      "imes": 3657,
      "ivid": 3658,
      "å¯Ĵ": 3659,
      "ivers": 3660,
      "oad": 3661,
      "æ¶Īè´¹èĢħ": 3662,
      "äºĭæķħ": 3663,
      "ç²Ĵ": 3664,
      "åĶ±": 3665,
      "å½ĵäºĭäºº": 3666,
      "æ¤įçī©": 3667,
      "è¿ŀæİ¥": 3668,
      "é©¾": 3669,
      "Ġshow": 3670,
      "åĨħçļĦ": 3671,
      "èĪ¹": 3672,
      "å¡«": 3673,
      "ä¼ļè®¡": 3674,
      "å£ģ": 3675,
      "ars": 3676,
      "Ġstudy": 3677,
      "åĬŀçĲĨ": 3678,
      "è¡£": 3679,
      "å·§": 3680,
      "Ġpartic": 3681,
      "èĤĮ": 3682,
      "ization": 3683,
      "2021": 3684,
      "å¦Ī": 3685,
      "ency": 3686,
      "Ġå¹´": 3687,
      "æĬ½": 3688,
      "ç§ĳçłĶ": 3689,
      "work": 3690,
      "åĪĨåŃĲ": 3691,
      "æıĲä¾ĽäºĨ": 3692,
      "éļĶ": 3693,
      "ï¼īãĢĤ": 3694,
      "ĠĠĠĠĠĠĠĠĠĠĠĠĠĠĠĠ": 3695,
      "ä¸Ĭè¿°": 3696,
      "æīĢè°ĵ": 3697,
      "éĽ·": 3698,
      "ted": 3699,
      "èĥĮæĻ¯": 3700,
      "26": 3701,
      "¤Ĳ": 3702,
      "äº§æĿĥ": 3703,
      "ĠFor": 3704,
      "åŁºå±Ĥ": 3705,
      "å½ĵåľ°": 3706,
      "éĶĻè¯¯": 3707,
      "å±¥è¡Į": 3708,
      "ä¸Ģæĺ¯": 3709,
      "çļĦçłĶç©¶": 3710,
      "çĽŁ": 3711,
      "ĠAmeric": 3712,
      "cer": 3713,
      "çĽ¸åĲĮ": 3714,
      "åıªèĥ½": 3715,
      "ç±į": 3716,
      "è¡Ĺ": 3717,
      "å¡ŀ": 3718,
      "ãĢĤ$": 3719,
      "åľ£": 3720,
      "çĥ§": 3721,
      "ä¿¡çĶ¨": 3722,
      "èĭ±åĽ½": 3723,
      "pen": 3724,
      "å·®å¼Ĥ": 3725,
      "ä½³": 3726,
      "åĴĮåĽ½": 3727,
      "This": 3728,
      "å¦ĩ": 3729,
      "æ¶µ": 3730,
      "æĪĲç»©": 3731,
      "ral": 3732,
      "rent": 3733,
      "Ġappro": 3734,
      "line": 3735,
      "åĩĨç¡®": 3736,
      "è§Ĥå¿µ": 3737,
      "iles": 3738,
      "åĩłä¸ª": 3739,
      "æľīä¸Ģ": 3740,
      "æĴĳ": 3741,
      "args": 3742,
      "æ´¥": 3743,
      "cri": 3744,
      "çļĦæĸ¹æ³ķ": 3745,
      "æ»ĳ": 3746,
      "åĨ¬": 3747,
      "ç§»åĬ¨": 3748,
      "27": 3749,
      "ä¸įåĪ°": 3750,
      "ç¥ŀç»ı": 3751,
      "éģĵè·¯": 3752,
      "Ġoften": 3753,
      "Ġbeing": 3754,
      "Ġsol": 3755,
      "ĠAs": 3756,
      "æ¡Īä¾ĭ": 3757,
      "è¯º": 3758,
      "çļĦæĹ¶éĹ´": 3759,
      "èĢĲ": 3760,
      "è¯ģåĪ¸": 3761,
      "è¯ļ": 3762,
      "Ġgrow": 3763,
      "ä¸´åºĬ": 3764,
      "NA": 3765,
      "éĢ»": 3766,
      "Ġproble": 3767,
      "å¹¸": 3768,
      "æľīæīĢ": 3769,
      "æµĭè¯ķ": 3770,
      "çŃĸçķ¥": 3771,
      "ãĢģâĢľ": 3772,
      "è§Ħå¾ĭ": 3773,
      "Ġperson": 3774,
      "æįŁå¤±": 3775,
      "èĢĥæł¸": 3776,
      "æģ¢": 3777,
      "çŁĽ": 3778,
      "ä¹Łåı¯ä»¥": 3779,
      "åĬ¡éĻ¢": 3780,
      "ĠSe": 3781,
      "2018": 3782,
      "łéģĵ": 3783,
      "ality": 3784,
      "ä½ĵéªĮ": 3785,
      "Ġ18": 3786,
      "è´Ńä¹°": 3787,
      "å®ĩ": 3788,
      "éĢĲæŃ¥": 3789,
      "Ġins": 3790,
      "ĠAl": 3791,
      "æĶ¶çĽĬ": 3792,
      "other": 3793,
      "ä¸Ŀ": 3794,
      "Ġ20": 3795,
      "èŀįèµĦ": 3796,
      "ç»ĺ": 3797,
      "é«ĺåº¦": 3798,
      "Ġ,": 3799,
      "Ġsame": 3800,
      "çŃīçŃī": 3801,
      "lob": 3802,
      "Ġfile": 3803,
      "Ġboth": 3804,
      "load": 3805,
      "any": 3806,
      "åĪĨéħį": 3807,
      "çªģåĩº": 3808,
      "è®¾ç«ĭ": 3809,
      "ĊĠĠĠĠĠĠĠĠĠĠĠĠĠĠĠĠĠĠĠ": 3810,
      "æĪª": 3811,
      "Ġhist": 3812,
      "ç©ºæ°Ķ": 3813,
      "att": 3814,
      "Ġenvironment": 3815,
      "ä¸Ģä¸ĭ": 3816,
      "çī¹åĪ«æĺ¯": 3817,
      "land": 3818,
      "æĹ¥å¸¸": 3819,
      "ä¸»ä»»": 3820,
      "35": 3821,
      "è¿Ŀæ³ķ": 3822,
      "èĲ¥åħ»": 3823,
      "ä¸įå°ĳ": 3824,
      "Ġ/": 3825,
      "éĢļçŁ¥": 3826,
      "Ġdoc": 3827,
      "æ¯«": 3828,
      "è¿Ľè¡ĮäºĨ": 3829,
      "è¿Ĳè¾ĵ": 3830,
      "file": 3831,
      "çļĦä½ľçĶ¨": 3832,
      "åľĪ": 3833,
      "åĨ°": 3834,
      "hes": 3835,
      "è¡°": 3836,
      "åĨ³çŃĸ": 3837,
      "éĨĴ": 3838,
      "æĹ¦": 3839,
      "ĠThey": 3840,
      "ĠHow": 3841,
      "ER": 3842,
      "è¯¦": 3843,
      "éĤ£äºĽ": 3844,
      "åĲ´": 3845,
      "æĬĳ": 3846,
      "æ½®": 3847,
      "ç»ĻäºĪ": 3848,
      "èī¯å¥½çļĦ": 3849,
      "%ï¼Į": 3850,
      "els": 3851,
      "come": 3852,
      "è¡¨æĺİ": 3853,
      "çĽĳæµĭ": 3854,
      "åĽ½åĬ¡éĻ¢": 3855,
      "ergy": 3856,
      "è´¡çĮ®": 3857,
      "ream": 3858,
      "arning": 3859,
      "è½¬åŀĭ": 3860,
      "è¿ĽæŃ¥": 3861,
      "class": 3862,
      "æµĵ": 3863,
      "å¤ļçļĦ": 3864,
      "è°·": 3865,
      "æĪĲåĳĺ": 3866,
      "äºĮæĺ¯": 3867,
      "Ġvalue": 3868,
      ")ï¼Į": 3869,
      "çĽ¸å½ĵ": 3870,
      "ä¸¤ç§į": 3871,
      "test": 3872,
      "åŁºåľ°": 3873,
      "æĽ´å¥½": 3874,
      "çŁĽçĽ¾": 3875,
      "éĻ·": 3876,
      "åĩ¡": 3877,
      "ä¹Łå°±æĺ¯": 3878,
      "çĿ¡": 3879,
      "äººå·¥": 3880,
      "å¡Ķ": 3881,
      "æĪĳçļĦ": 3882,
      "Ġproject": 3883,
      "éĩįæĸ°": 3884,
      "åħ±äº«": 3885,
      "æŃ»äº¡": 3886,
      "éĢ»è¾ĳ": 3887,
      "))": 3888,
      "cont": 3889,
      "è¿«": 3890,
      "Ġwhile": 3891,
      "æ¸¸æĪı": 3892,
      "å¹³è¡¡": 3893,
      "me": 3894,
      "å¤ļä¸ª": 3895,
      "32": 3896,
      "ify": 3897,
      "æľºæ¢°": 3898,
      "è¾Ĩ": 3899,
      "ç§¦": 3900,
      "å¸¸è§ģ": 3901,
      "æģ¢å¤į": 3902,
      "å¿Ĩ": 3903,
      "éļ¾ä»¥": 3904,
      "Ġactiv": 3905,
      "æīĵéĢł": 3906,
      "åı¬": 3907,
      "ç¼ºä¹ı": 3908,
      "å²Ĺä½į": 3909,
      "æĸĩåŃĹ": 3910,
      "èµı": 3911,
      "2017": 3912,
      "ger": 3913,
      "çĹĩçĬ¶": 3914,
      "æĮĳæĪĺ": 3915,
      "run": 3916,
      "å¥¥": 3917,
      "Ġdisc": 3918,
      "2022": 3919,
      ".âĢĿ": 3920,
      "ä¼į": 3921,
      "æ¨ª": 3922,
      "èĸª": 3923,
      "bs": 3924,
      "çĮª": 3925,
      "çªģçł´": 3926,
      "Ġdown": 3927,
      "è®¤çľŁ": 3928,
      "åĮ»åŃ¦": 3929,
      "ä½¿å¾Ĺ": 3930,
      "éĽĨä½ĵ": 3931,
      "ä½ĵåĪ¶": 3932,
      "æīĢåľ¨": 3933,
      "æľīäºĨ": 3934,
      "éľĩ": 3935,
      "Ġorgan": 3936,
      "è¿ĲèĲ¥": 3937,
      "Ġris": 3938,
      "ä»įçĦ¶": 3939,
      "åºĨ": 3940,
      "æ³¨åĨĮ": 3941,
      "æĪ¿å±ĭ": 3942,
      "Ġmuch": 3943,
      "èį¯çī©": 3944,
      "Ġbr": 3945,
      "çĺ¤": 3946,
      "çīĻ": 3947,
      "èĤ¡ç¥¨": 3948,
      "Ġbefore": 3949,
      "çļĦä¸Ģä¸ª": 3950,
      "åĽºå®ļ": 3951,
      "doc": 3952,
      "å®Įæķ´": 3953,
      "._": 3954,
      "ital": 3955,
      "é¢ľ": 3956,
      "åħĪçĶŁ": 3957,
      "Ġmust": 3958,
      "éħįç½®": 3959,
      "æĩĤ": 3960,
      "éĢĤçĶ¨": 3961,
      "å¢Ļ": 3962,
      "æĶ¯æĴĳ": 3963,
      "Ġ+": 3964,
      "Ġmem": 3965,
      "ä¹Łä¼ļ": 3966,
      "ÃĹ": 3967,
      "æĪĺäºī": 3968,
      "è°ĭ": 3969,
      "å°ıæĹ¶": 3970,
      "å®ı": 3971,
      "Ġbo": 3972,
      "Ġbody": 3973,
      "è½¬åĮĸ": 3974,
      "æ²ŁéĢļ": 3975,
      "AR": 3976,
      "å°¿": 3977,
      "å¾ªçİ¯": 3978,
      "åĲĦç±»": 3979,
      "æİ¨å¹¿": 3980,
      "è¿½æ±Ĥ": 3981,
      "ined": 3982,
      "[\"": 3983,
      "Ġ9": 3984,
      "Ġallow": 3985,
      "Ġcle": 3986,
      "çĶŁéķ¿": 3987,
      "ving": 3988,
      "vern": 3989,
      "data": 3990,
      "ä»²": 3991,
      "åĬłå¤§": 3992,
      "Ġprot": 3993,
      "ä¹ĺ": 3994,
      "è¾©": 3995,
      "è½¬ç§»": 3996,
      "æµģç¨ĭ": 3997,
      "Ġsaid": 3998,
      "çŀ": 3999,
      "çŃĶæ¡Ī": 4000,
      "è®¯": 4001,
      "åĸľæ¬¢": 4002,
      "Ġnumber": 4003,
      "å¤§ä¼ļ": 4004,
      "è°±": 4005,
      "Ġstudents": 4006,
      "æĪĲäºĨ": 4007,
      "Ġagain": 4008,
      "Ġconsid": 4009,
      "åĪĽä½ľ": 4010,
      "åħĪè¿Ľ": 4011,
      "gg": 4012,
      "Ġgu": 4013,
      "è¡¨éĿ¢": 4014,
      "çĪĨ": 4015,
      "å«": 4016,
      "èĤĿ": 4017,
      "æ¯ıå¹´": 4018,
      "èĦı": 4019,
      "è½´": 4020,
      "æ¡Ĩ": 4021,
      "æ·»": 4022,
      "åįĩçº§": 4023,
      "Ġdesign": 4024,
      "ç½ĳç«Ļ": 4025,
      "ON": 4026,
      "è·Ŀç¦»": 4027,
      "iqu": 4028,
      "ven": 4029,
      "è¿Ķ": 4030,
      "èµĸ": 4031,
      "Ġexp": 4032,
      "å¤ªéĺ³": 4033,
      "Ġx": 4034,
      "lement": 4035,
      "å²¸": 4036,
      "åı°æ¹¾": 4037,
      "\"]": 4038,
      "è§īå¾Ĺ": 4039,
      "Ġhuman": 4040,
      "ç»ıåİĨ": 4041,
      "Ġkey": 4042,
      "ule": 4043,
      "Ġfam": 4044,
      "æĻ®éģį": 4045,
      "åĩ½": 4046,
      "ä¸»ç®¡": 4047,
      "æ£®": 4048,
      "day": 4049,
      "Ġchang": 4050,
      "åĲī": 4051,
      "ç«Ł": 4052,
      "Ġmade": 4053,
      "Ġshe": 4054,
      "èĥ¶": 4055,
      "é©¶": 4056,
      "alse": 4057,
      "èĤº": 4058,
      "çĽ¸æ¯Ķ": 4059,
      "ĠDe": 4060,
      "arent": 4061,
      "ä¼ı": 4062,
      "æĢ»ä½ĵ": 4063,
      "Ġmethod": 4064,
      "amples": 4065,
      "åħ±åĴĮåĽ½": 4066,
      "èµĶåģ¿": 4067,
      "ross": 4068,
      "ç£ģ": 4069,
      "min": 4070,
      "Ġ:": 4071,
      "éĿĴå¹´": 4072,
      "å½¢è±¡": 4073,
      "å°ıç»Ħ": 4074,
      "æĲľ": 4075,
      "éĢĴ": 4076,
      "ä»Ħ": 4077,
      "akes": 4078,
      "èĸĦ": 4079,
      "èį·": 4080,
      "åħ»èĢģ": 4081,
      "æĸ°æĹ¶ä»£": 4082,
      "ãĢĤï¼Ī": 4083,
      "é²ģ": 4084,
      "æİī": 4085,
      "Ġredu": 4086,
      "è´¢åĬ¡": 4087,
      "ä¸Ģèĩ´": 4088,
      "----------------": 4089,
      "angu": 4090,
      "Ġlog": 4091,
      "çĤ¼": 4092,
      "Ġtem": 4093,
      "æĿ¡ä¾ĭ": 4094,
      "èµĭ": 4095,
      "åŀĥ": 4096,
      "åľ°çĲĥ": 4097,
      "éĽª": 4098,
      "acter": 4099,
      "åľ¾": 4100,
      "æģĲ": 4101,
      "ä¹ĥ": 4102,
      "Ġstate": 4103,
      "æĢ§è´¨": 4104,
      "ithub": 4105,
      "åŀĥåľ¾": 4106,
      "åľ°äº§": 4107,
      "Ġgood": 4108,
      "ãĢĤâĢľ": 4109,
      "ç§ĺ": 4110,
      "requ": 4111,
      "èĩ£": 4112,
      "ä¸Ģå¹´": 4113,
      "è½¬åıĺ": 4114,
      "æĺ¯ä»Ģä¹Ī": 4115,
      "Ġresearch": 4116,
      "åºĶå¯¹": 4117,
      "ä¼¯": 4118,
      "èĤ¯": 4119,
      "è¿ŀç»Ń": 4120,
      "æ°§åĮĸ": 4121,
      "Ġtreat": 4122,
      "ä¹³": 4123,
      "å£¤": 4124,
      "èĦĤ": 4125,
      "å°º": 4126,
      "åº¦çļĦ": 4127,
      "çī¢": 4128,
      "ç³»ç»ŁçļĦ": 4129,
      "æĦŁè§ī": 4130,
      "åĴ¨": 4131,
      "Ġelse": 4132,
      "æĬĬæı¡": 4133,
      "itions": 4134,
      "éªĹ": 4135,
      "åĩºåı£": 4136,
      "åħ¬å¼Ģ": 4137,
      "åĸ·": 4138,
      "ems": 4139,
      "èº«ä»½": 4140,
      "çĶµæ±ł": 4141,
      "add": 4142,
      "ä¼¦": 4143,
      "æľīäºº": 4144,
      "Ġposs": 4145,
      "Ġben": 4146,
      "è°Ĳ": 4147,
      "Ġcontin": 4148,
      "å¦Ĥä¸ĭ": 4149,
      "é¤Ĳ": 4150,
      "çİ©": 4151,
      "AI": 4152,
      "An": 4153,
      "Ġtake": 4154,
      "åŁºåĽł": 4155,
      "åĽ¾ä¹¦": 4156,
      "çİ°ä»£åĮĸ": 4157,
      "set": 4158,
      "å·¥èīº": 4159,
      "Ġless": 4160,
      "Ġplan": 4161,
      "çĴ": 4162,
      "éĺ²æŃ¢": 4163,
      "ä½ľåĩº": 4164,
      "çļĨ": 4165,
      "Ġpop": 4166,
      "æº¶": 4167,
      "ç¤ºèĮĥ": 4168,
      "é¢Ħéĺ²": 4169,
      "æľ¬æĸĩ": 4170,
      "éº»": 4171,
      "ä¸Ĭåįĩ": 4172,
      "ataset": 4173,
      "æĿĨ": 4174,
      "è¯ķéªĮ": 4175,
      "Ġrep": 4176,
      "ä»ģ": 4177,
      "Ġprogram": 4178,
      "Ġpass": 4179,
      "ional": 4180,
      "Ġcare": 4181,
      "åĳ¨æľŁ": 4182,
      "Ġest": 4183,
      "ä¸ĢåĪĩ": 4184,
      "éĽħ": 4185,
      ")ãĢĤ": 4186,
      "æŃ£å¼ı": 4187,
      "Ġbre": 4188,
      "éģŃ": 4189,
      "æı´": 4190,
      "æİ¥è§¦": 4191,
      "Ġhand": 4192,
      "lood": 4193,
      "Ġopt": 4194,
      "itive": 4195,
      "ental": 4196,
      "èħĲ": 4197,
      "æĥħæĦŁ": 4198,
      "è§Ĩé¢ĳ": 4199,
      "äººæ°ĳæĶ¿åºľ": 4200,
      "Ġincluding": 4201,
      "ä¸ŃåĽ½çļĦ": 4202,
      "github": 4203,
      "å°¾": 4204,
      "æµģåĬ¨": 4205,
      "Ġcommon": 4206,
      "Ġpower": 4207,
      "æĿĥçĽĬ": 4208,
      "æ¯ıå¤©": 4209,
      "ier": 4210,
      "uss": 4211,
      "èĥĥ": 4212,
      "å±Ĥæ¬¡": 4213,
      "çĵ¦": 4214,
      "ability": 4215,
      "æĶ¹éĢł": 4216,
      "Ġ==": 4217,
      "åĢºåĬ¡": 4218,
      "è¦ĨçĽĸ": 4219,
      "omen": 4220,
      "è§Ħå®ļçļĦ": 4221,
      "AT": 4222,
      "æķ¬": 4223,
      "å½¢æĢģ": 4224,
      "åħ±äº§": 4225,
      "Ġdise": 4226,
      "son": 4227,
      "ince": 4228,
      "arge": 4229,
      "ner": 4230,
      "ww": 4231,
      "Ġ__": 4232,
      "ä¸ĭæĿ¥": 4233,
      "åĲĦä¸ª": 4234,
      "åħ¸åŀĭ": 4235,
      "point": 4236,
      "æ°ĳäºĭ": 4237,
      "åĽ´ç»ķ": 4238,
      "çĲĨæĥ³": 4239,
      "ention": 4240,
      "åĵ²åŃ¦": 4241,
      "Ġer": 4242,
      "ä¸ĭåĪĹ": 4243,
      "çĸı": 4244,
      "è¡ĮçļĦ": 4245,
      "è¿ĺè¦ģ": 4246,
      "åĴ¨è¯¢": 4247,
      "åį³ä½¿": 4248,
      "ä»ĵ": 4249,
      "å°¤åħ¶æĺ¯": 4250,
      "ä¸ªæľĪ": 4251,
      "æ´Ľ": 4252,
      "Ġschool": 4253,
      "æ°ĶåĢĻ": 4254,
      "ffic": 4255,
      "åĲĮæł·": 4256,
      "train": 4257,
      "ividual": 4258,
      "45": 4259,
      "æĢķ": 4260,
      "èģĮå·¥": 4261,
      "Ġaw": 4262,
      "ST": 4263,
      "fl": 4264,
      "èķ": 4265,
      "æľīæľº": 4266,
      "Ġpos": 4267,
      "è¿ĳå¹´æĿ¥": 4268,
      "Ġunderstand": 4269,
      "ĠAd": 4270,
      "ĠYou": 4271,
      "å¤§å¤ļæķ°": 4272,
      "éĢĤåĲĪ": 4273,
      "flow": 4274,
      "åĲĪæ³ķ": 4275,
      "ries": 4276,
      "å¥ı": 4277,
      "hy": 4278,
      "sc": 4279,
      "çªĹ": 4280,
      "çĽĲ": 4281,
      "å¢¨": 4282,
      "æ·±åĪ»": 4283,
      "for": 4284,
      "IN": 4285,
      "åĪ°çļĦ": 4286,
      "Ġsmall": 4287,
      "ä¸ĢæĿ¡": 4288,
      "è¾ĸ": 4289,
      "man": 4290,
      "å®ļä¹ī": 4291,
      "åı¯èĥ½ä¼ļ": 4292,
      "æ¬§æ´²": 4293,
      "Ġ**": 4294,
      "çĶĺ": 4295,
      "æ·±åĮĸ": 4296,
      "éĩĩè´Ń": 4297,
      "æĦıæĢĿ": 4298,
      "2019": 4299,
      "åĪĬ": 4300,
      "åħ¬åı¸çļĦ": 4301,
      "Ġmark": 4302,
      "ute": 4303,
      "æ³¨éĩį": 4304,
      "29": 4305,
      "æľ±": 4306,
      "åİħ": 4307,
      "ished": 4308,
      "æīĢå¾Ĺ": 4309,
      "æķ¢": 4310,
      "çºµ": 4311,
      "å¤ļå°ĳ": 4312,
      "åĩłä¹İ": 4313,
      "æĻ¶": 4314,
      "é«ĺè´¨éĩı": 4315,
      "ä¿®æĶ¹": 4316,
      "Ġday": 4317,
      "çļĦè§Ħå®ļ": 4318,
      "æĹĭ": 4319,
      "åĲĦåľ°": 4320,
      "</": 4321,
      "å§Ķæīĺ": 4322,
      "èĽĭçĻ½": 4323,
      "æĹ¶çļĦ": 4324,
      "ä½įäºİ": 4325,
      "æ¼ı": 4326,
      "èĵĿ": 4327,
      "åĪ¶ä½ľ": 4328,
      "Ġbeh": 4329,
      "ources": 4330,
      "æľ¬ä¹¦": 4331,
      "èĢĮä¸į": 4332,
      "Ġcontain": 4333,
      "åŃ¦ä¼ļ": 4334,
      "ids": 4335,
      "æĢģåº¦": 4336,
      "æĢ»ä¹¦è®°": 4337,
      "ĠQ": 4338,
      "âĳł": 4339,
      "Ġiss": 4340,
      "ah": 4341,
      "Ġpract": 4342,
      "æĥħç»ª": 4343,
      "é©¬åħĭ": 4344,
      "åħģ": 4345,
      "ĠThese": 4346,
      "å¦»": 4347,
      "æĦıåĳ³": 4348,
      "ä¸ŃåĽ½çī¹èī²": 4349,
      "éŁ©": 4350,
      "by": 4351,
      "è¥¿æĸ¹": 4352,
      "å¿½": 4353,
      "ared": 4354,
      "36": 4355,
      "åĲ¨": 4356,
      "åİŁçĲĨ": 4357,
      "åĽ½çļĦ": 4358,
      "ä¸»è¦ģæĺ¯": 4359,
      "åĭĩ": 4360,
      "é¸Ł": 4361,
      "åĩŃ": 4362,
      "éĥ½ä¼ļ": 4363,
      "æĦŁåıĹ": 4364,
      "åħļåĳĺ": 4365,
      "éī´å®ļ": 4366,
      "è´¯å½»": 4367,
      "çļĦè¯Ŀ": 4368,
      "æļĸ": 4369,
      "è§Ī": 4370,
      "å¿ł": 4371,
      "è¯·æ±Ĥ": 4372,
      "è·ĳ": 4373,
      "Ġimpro": 4374,
      "åĳĬè¯ī": 4375,
      "ä»ĸäºº": 4376,
      "è¿ħéĢŁ": 4377,
      "ulation": 4378,
      "é¢Ĺ": 4379,
      "äºİæĺ¯": 4380,
      "Ġnow": 4381,
      "åĭ¤": 4382,
      "Ġpoint": 4383,
      "åįģäºĮ": 4384,
      "Ġcell": 4385,
      "Ġlook": 4386,
      "å£®": 4387,
      "åŃ¦èĢħ": 4388,
      "æģ©": 4389,
      "Ġdem": 4390,
      "log": 4391,
      "key": 4392,
      "åĬŀåħ¬": 4393,
      "Ġaround": 4394,
      "éĢĨ": 4395,
      "çºłçº·": 4396,
      "'t": 4397,
      "aj": 4398,
      "åĵĪ": 4399,
      "å°Ŀ": 4400,
      "åĬ¨ä½ľ": 4401,
      "ðŁ": 4402,
      "Ġeas": 4403,
      "ĠSc": 4404,
      "åĮħåĲ«": 4405,
      "ä¼¸": 4406,
      "çļĦåĨħå®¹": 4407,
      "conom": 4408,
      "Ġocc": 4409,
      "å¤§éĥ¨åĪĨ": 4410,
      "æŁ±": 4411,
      "å°±åı¯ä»¥": 4412,
      "ç¬¬äºĶ": 4413,
      "Ġvis": 4414,
      "Ġhead": 4415,
      "åį±éĻ©": 4416,
      "å®¡æŁ¥": 4417,
      "åıĳè¡¨": 4418,
      "Ġelect": 4419,
      "Ġdevelopment": 4420,
      "æĥĬ": 4421,
      "çİ°åľº": 4422,
      "Ġconst": 4423,
      "å²©": 4424,
      "åĳĪçİ°": 4425,
      "Ġpot": 4426,
      "ython": 4427,
      "åĽ½æ°ĳ": 4428,
      "ocial": 4429,
      "äººæ°ĳåħ±åĴĮåĽ½": 4430,
      "åı¤ä»£": 4431,
      "å¹´é¾Ħ": 4432,
      "æľĢå¤§çļĦ": 4433,
      "ateg": 4434,
      "å¸ĥå±Ģ": 4435,
      "å¯¿": 4436,
      "ank": 4437,
      "åĪ·": 4438,
      "Ġlit": 4439,
      "å¾ĭå¸Ī": 4440,
      "Ġreport": 4441,
      "az": 4442,
      "iversity": 4443,
      "Ġhim": 4444,
      "æĸ°éĹ»": 4445,
      "åĪ¶éĢłä¸ļ": 4446,
      "æĸ°åŀĭ": 4447,
      "åĪ©æ¶¦": 4448,
      "èģĮè´£": 4449,
      "ä¿Ħ": 4450,
      "èħ¹": 4451,
      "éħ¬": 4452,
      "anguage": 4453,
      "cond": 4454,
      "ç±»ä¼¼": 4455,
      "åľŁå£¤": 4456,
      "ought": 4457,
      "500": 4458,
      "å¾Ĳ": 4459,
      "âĳ¡": 4460,
      "True": 4461,
      "ä¹Į": 4462,
      "idd": 4463,
      "PP": 4464,
      "æ°ĳä¸»": 4465,
      "éĢĤå½ĵ": 4466,
      "Ġplay": 4467,
      "Ġindividual": 4468,
      "åħ¬éĩĮ": 4469,
      "Ġfunction": 4470,
      "è¹": 4471,
      "åĲİæĿ¥": 4472,
      "Ġlearn": 4473,
      "Ġperform": 4474,
      "åħ¬ä¼Ĺ": 4475,
      "Ġquest": 4476,
      "åĬĽåº¦": 4477,
      "ccess": 4478,
      "ury": 4479,
      "ç»ĵæĿŁ": 4480,
      "orth": 4481,
      "ead": 4482,
      "ä¹ĭå¤ĸ": 4483,
      "äººçī©": 4484,
      "è¦ģç´ł": 4485,
      "è·³": 4486,
      "æĪ¿åľ°äº§": 4487,
      "å®īè£ħ": 4488,
      "ä¸Ńåįİäººæ°ĳåħ±åĴĮåĽ½": 4489,
      "ç®±": 4490,
      "æ¸łéģĵ": 4491,
      "æĻĭ": 4492,
      "æ¶Īéĺ²": 4493,
      "%ãĢĤ": 4494,
      "Ġenergy": 4495,
      "åģ¥åħ¨": 4496,
      "åħįçĸ«": 4497,
      "æįŁå®³": 4498,
      "çļĦè¦ģæ±Ĥ": 4499,
      "éĵľ": 4500,
      "ĠRes": 4501,
      "Ġadv": 4502,
      "view": 4503,
      "æľīåĪ©äºİ": 4504,
      "å¯¹å¤ĸ": 4505,
      "æĳĨ": 4506,
      "æļĤ": 4507,
      "æ¸ħæ¥ļ": 4508,
      "aterial": 4509,
      "è½¨": 4510,
      "çģ°": 4511,
      "åĪĨéĴŁ": 4512,
      "Ġanal": 4513,
      "è°ĥèĬĤ": 4514,
      "è¯Ńæĸĩ": 4515,
      "äººåľ¨": 4516,
      "èįĲ": 4517,
      "å®¢è§Ĥ": 4518,
      "å°½ç®¡": 4519,
      "åĲ¸å¼ķ": 4520,
      "åĿ¦": 4521,
      "é»ĺ": 4522,
      "\"(": 4523,
      "æĮĤ": 4524,
      "cial": 4525,
      "çļĦå°ı": 4526,
      "è¾¨": 4527,
      "ä¸ģ": 4528,
      "Ġwithout": 4529,
      "é¢Ħæµĭ": 4530,
      "é©¬åħĭæĢĿ": 4531,
      "çļĦèĥ½åĬĽ": 4532,
      "éħįåĲĪ": 4533,
      "æĥħåĨµä¸ĭ": 4534,
      "é£Łçī©": 4535,
      "åįĪ": 4536,
      "é¡¿": 4537,
      "Ġwant": 4538,
      "åĲ¯åĬ¨": 4539,
      "ç¨¿": 4540,
      "é«ĺæķĪ": 4541,
      "Ġchange": 4542,
      "èµŀ": 4543,
      "å§ĭç»Ī": 4544,
      "æĭĶ": 4545,
      "ustom": 4546,
      "AS": 4547,
      "åĽ½æľī": 4548,
      "éļľç¢į": 4549,
      "ä¼Ļ": 4550,
      "æĳ©": 4551,
      "be": 4552,
      "å®ļä½į": 4553,
      "ats": 4554,
      "éĢļä¿¡": 4555,
      "inst": 4556,
      "ified": 4557,
      "iness": 4558,
      "å¼Ł": 4559,
      "75": 4560,
      "æ³ķæ²»": 4561,
      "é«ĺçŃī": 4562,
      "ç¬ĳ": 4563,
      "åŃĲçļĦ": 4564,
      "èĩªæ²»": 4565,
      "Ġcult": 4566,
      "èµĦæł¼": 4567,
      "æļĹ": 4568,
      "IT": 4569,
      "dict": 4570,
      "atter": 4571,
      "ãĢģãĢĬ": 4572,
      "ailable": 4573,
      "time": 4574,
      "bo": 4575,
      "ä¸Ĭå¸Ĥ": 4576,
      "Ġap": 4577,
      "èĥİ": 4578,
      "å¤©ä¸ĭ": 4579,
      "èİ«": 4580,
      "imate": 4581,
      "åįıåĲĮ": 4582,
      "less": 4583,
      "åĢ¡": 4584,
      "åķĨæłĩ": 4585,
      "198": 4586,
      "æ³½": 4587,
      "rop": 4588,
      "ĠNew": 4589,
      "ensor": 4590,
      "ium": 4591,
      "ering": 4592,
      "å¾Īå¤§": 4593,
      "âĢĺ": 4594,
      "Ġproduct": 4595,
      "è²": 4596,
      "atic": 4597,
      "çİ¯ä¿Ŀ": 4598,
      "ä¸Ģå®ļè¦ģ": 4599,
      "å®ŀéĻħä¸Ĭ": 4600,
      "æĦĪ": 4601,
      "Ġsimp": 4602,
      "python": 4603,
      "Ġthree": 4604,
      "âĢĿãĢģâĢľ": 4605,
      "äºĨä¸Ģä¸ª": 4606,
      "æľ¬è´¨": 4607,
      "åĵģç§į": 4608,
      "åĴĮç¤¾ä¼ļ": 4609,
      "Ġinclude": 4610,
      "33": 4611,
      "dir": 4612,
      "Ex": 4613,
      "ä¼Ĭ": 4614,
      "åŃ©åŃĲçļĦ": 4615,
      "è¯ĬæĸŃ": 4616,
      "èģĺ": 4617,
      "éĺŁä¼į": 4618,
      "icro": 4619,
      "éĺµ": 4620,
      "åĢ¼å¾Ĺ": 4621,
      "æĹ©æľŁ": 4622,
      "ç»©æķĪ": 4623,
      "âĢĵ": 4624,
      "åħĥç´ł": 4625,
      "æľīçĿĢ": 4626,
      "è·Į": 4627,
      "æ£ĢéªĮ": 4628,
      ".,": 4629,
      "ively": 4630,
      "èĲ¥éĶĢ": 4631,
      "èİ·åıĸ": 4632,
      "åī²": 4633,
      "Ġtorch": 4634,
      "ond": 4635,
      "Ġcour": 4636,
      "Ġgen": 4637,
      "å¿ĺ": 4638,
      "Ġcaus": 4639,
      "ä¸Ģä½ĵ": 4640,
      "é¢Ħç®Ĺ": 4641,
      "æĬķèµĦèĢħ": 4642,
      "ior": 4643,
      "ference": 4644,
      "erest": 4645,
      "çŃīæĸ¹éĿ¢": 4646,
      "å±ķç¤º": 4647,
      "face": 4648,
      "çļĦåİĨåı²": 4649,
      "è¾ŀ": 4650,
      "å¤Ħç½ļ": 4651,
      "å¾·åĽ½": 4652,
      "çļĦåħ³ç³»": 4653,
      "aut": 4654,
      "Ġequ": 4655,
      "åĲĦçº§": 4656,
      "Ġphys": 4657,
      "ording": 4658,
      "Ġknown": 4659,
      "Ġterm": 4660,
      "æĭĴ": 4661,
      "ç£¨": 4662,
      "æĦıåĳ³çĿĢ": 4663,
      "Ġproper": 4664,
      "ä¸ĢæĹ¦": 4665,
      "Ġwithin": 4666,
      "æĶ¶éĽĨ": 4667,
      "çļĦä¸į": 4668,
      "ĠEn": 4669,
      "æ£Ģå¯Ł": 4670,
      "æī¾åĪ°": 4671,
      "äº©": 4672,
      "åĪĨäº«": 4673,
      "åŁ¹èĤ²": 4674,
      "é¥Ń": 4675,
      "æī°": 4676,
      "uture": 4677,
      "We": 4678,
      "Ġpublic": 4679,
      "åĲĮæ¯Ķ": 4680,
      "Ġgroup": 4681,
      "æıĴ": 4682,
      "çĶ¨äºº": 4683,
      "æĪĲçĨŁ": 4684,
      "hers": 4685,
      "æłĩå¿Ĺ": 4686,
      "ç»ĦåĲĪ": 4687,
      "çŁ¥è¯Ĩäº§æĿĥ": 4688,
      "é¥°": 4689,
      "èµµ": 4690,
      "Ġsignific": 4691,
      "ging": 4692,
      "æ·±åº¦": 4693,
      "èħº": 4694,
      "antic": 4695,
      "åĲĦé¡¹": 4696,
      "çļĦåĲĮæĹ¶": 4697,
      "æĮĩæķ°": 4698,
      "Ġcurrent": 4699,
      "org": 4700,
      "Ġcer": 4701,
      "Ġpath": 4702,
      "æģĴ": 4703,
      "åĽĽä¸ª": 4704,
      "å¿ħçĦ¶": 4705,
      "ai": 4706,
      "æīİ": 4707,
      "éĩĳå±ŀ": 4708,
      "Ġident": 4709,
      "Ġmus": 4710,
      "æĸĩçĮ®": 4711,
      "æ¶Ĥ": 4712,
      "æĽ´å¤ļçļĦ": 4713,
      "Ġobject": 4714,
      "64": 4715,
      "åĹ": 4716,
      "çļĦä¸Ģç§į": 4717,
      "çļĦæĥħåĨµä¸ĭ": 4718,
      "ä¸Ĭä¸ĭ": 4719,
      "æĽ¹": 4720,
      "ES": 4721,
      "äºĭé¡¹": 4722,
      "å®Ļ": 4723,
      "æŃ£æĺ¯": 4724,
      "ä¾Ľç»Ļ": 4725,
      "iven": 4726,
      "èĤł": 4727,
      "æıĲåĩºäºĨ": 4728,
      "çļĦæľĢ": 4729,
      "å¹´äºº": 4730,
      "ploy": 4731,
      "Ġcreate": 4732,
      "bers": 4733,
      "çļĦåľ°æĸ¹": 4734,
      "åĲ§": 4735,
      "amet": 4736,
      "Ġgre": 4737,
      "Ġsym": 4738,
      "æľīéĻĲåħ¬åı¸": 4739,
      "æĺ¯ä¸į": 4740,
      "åĬ¨æľº": 4741,
      "Ġbas": 4742,
      "åĬ¨æĢģ": 4743,
      "ync": 4744,
      "æİĺ": 4745,
      "å¹¿å¤§": 4746,
      "åŃ¦å®¶": 4747,
      "æµ®": 4748,
      "ä¸ĵéĹ¨": 4749,
      "2016": 4750,
      "åĲ¸æĶ¶": 4751,
      "æ³¥": 4752,
      "çļĦç¤¾ä¼ļ": 4753,
      "åħ¬å¹³": 4754,
      "èĥĢ": 4755,
      "ä¼łè¾ĵ": 4756,
      "ç»ıæµİåıĳå±ķ": 4757,
      "Ġant": 4758,
      "æķ´åĲĪ": 4759,
      "ences": 4760,
      "åĴĮè°Ĳ": 4761,
      "å½¼": 4762,
      "å¹´åº¦": 4763,
      "æĪĲå°±": 4764,
      "Ġhtt": 4765,
      "åįļå£«": 4766,
      "æĤ²": 4767,
      "èī¯å¥½": 4768,
      "åĪĽå»º": 4769,
      "åĵ¥": 4770,
      "åľºæĻ¯": 4771,
      "å®ĩå®Ļ": 4772,
      "sw": 4773,
      "Ġpur": 4774,
      "ote": 4775,
      "çĦĬ": 4776,
      "åĮºåĪ«": 4777,
      "ç«ĭæ³ķ": 4778,
      "outh": 4779,
      "åĨįæ¬¡": 4780,
      "æĤī": 4781,
      "ä¹ĭä¸Ń": 4782,
      "é¢ĦæľŁ": 4783,
      "èªī": 4784,
      "æĹ¨": 4785,
      "Ġmight": 4786,
      "oid": 4787,
      "æŁĲäºĽ": 4788,
      "èĭ±è¯Ń": 4789,
      "uro": 4790,
      "èĢķ": 4791,
      "æĮĸ": 4792,
      "çľł": 4793,
      "ç§įæ¤į": 4794,
      "ç¡®è®¤": 4795,
      "iod": 4796,
      "Ġthink": 4797,
      "æĿĥçļĦ": 4798,
      "æķ°åŃĹåĮĸ": 4799,
      "çļĦåŁºç¡Ģä¸Ĭ": 4800,
      "åĪ©çİĩ": 4801,
      "Ġgovern": 4802,
      "Ġä¸Ģ": 4803,
      "å¾Ĵ": 4804,
      "Ġdid": 4805,
      "ulti": 4806,
      "æĺ¾èĳĹ": 4807,
      "Ġspe": 4808,
      "è®¤çŁ¥": 4809,
      "opt": 4810,
      "èĢĥçĶŁ": 4811,
      "ĠCl": 4812,
      "æııè¿°": 4813,
      "åĮ»çĶŁ": 4814,
      "Ġ<": 4815,
      "çļĦåİŁåĽł": 4816,
      "ately": 4817,
      "Ġeduc": 4818,
      "åŃ¤": 4819,
      "è®¸åı¯": 4820,
      "è¿Ľåı£": 4821,
      "Ġhere": 4822,
      "å¼ķé¢Ĩ": 4823,
      "ä»¿": 4824,
      "åľ¨æŃ¤": 4825,
      "Ġpo": 4826,
      "æĲŃ": 4827,
      "Ġinfl": 4828,
      "Ġfollowing": 4829,
      "ouse": 4830,
      "ially": 4831,
      "Ġlearning": 4832,
      "è·ĥ": 4833,
      "æŀĿ": 4834,
      "Ġstand": 4835,
      "met": 4836,
      "Ġâ": 4837,
      "çº¤": 4838,
      "èĪį": 4839,
      "Ġeng": 4840,
      "äººä½ĵ": 4841,
      "æµĻ": 4842,
      "è¿·": 4843,
      "åĩºåı°": 4844,
      "å¥¶": 4845,
      "èĥ¸": 4846,
      "ache": 4847,
      "alk": 4848,
      "åºĶæĢ¥": 4849,
      "çĶµè·¯": 4850,
      "è¢«åĳĬ": 4851,
      "åŃ¦çļĦ": 4852,
      "icult": 4853,
      "çģĮ": 4854,
      "ĠThere": 4855,
      "è¾ĥå¤§": 4856,
      "å¹ķ": 4857,
      "Ġsom": 4858,
      "cing": 4859,
      "Ġoper": 4860,
      "Ġprof": 4861,
      "arget": 4862,
      "çĽ¸åºĶçļĦ": 4863,
      "Ġgreat": 4864,
      "ĠSh": 4865,
      "åĪ¤åĨ³": 4866,
      "Ġprovid": 4867,
      "fect": 4868,
      "Ġsaf": 4869,
      "PU": 4870,
      "Ġess": 4871,
      "ills": 4872,
      "è¡¥åħħ": 4873,
      "åį±å®³": 4874,
      "å´ĩ": 4875,
      "æĺĮ": 4876,
      "æĺ¯å¯¹": 4877,
      "Ġplace": 4878,
      "çĸ«èĭĹ": 4879,
      ",âĢĿ": 4880,
      "Ġdon": 4881,
      "æĥħå½¢": 4882,
      "çĽ¸åħ³çļĦ": 4883,
      "Ġinstall": 4884,
      "hor": 4885,
      "é¸¡": 4886,
      "æłª": 4887,
      "Ġarg": 4888,
      "med": 4889,
      "åŃĺåĤ¨": 4890,
      "head": 4891,
      "Ġcode": 4892,
      "åĳ¼åĲ¸": 4893,
      "rror": 4894,
      "ä¸įåĨį": 4895,
      "âĢĿâĢľ": 4896,
      "ĠBut": 4897,
      "åłĨ": 4898,
      "åģ¶": 4899,
      "æĥ³è±¡": 4900,
      "æī¹åĩĨ": 4901,
      "æĬĢæľ¯çļĦ": 4902,
      "ä¸ŃåĮ»": 4903,
      "æĢİæł·": 4904,
      "text": 4905,
      "åĬłåħ¥": 4906,
      "Ġmeas": 4907,
      "ç²®é£Ł": 4908,
      "Ġve": 4909,
      "æĪ´": 4910,
      "alle": 4911,
      "æīĭæľº": 4912,
      "éĥ¨ç½²": 4913,
      "2000": 4914,
      "æķĮ": 4915,
      "èĥ½éĩı": 4916,
      "åĽ½å®¶çļĦ": 4917,
      "ä¼Łå¤§": 4918,
      "é©±åĬ¨": 4919,
      "my": 4920,
      "Ġide": 4921,
      "ä¸ĵé¡¹": 4922,
      "âĶĢâĶĢâĶĢâĶĢ": 4923,
      "äºĪä»¥": 4924,
      "ients": 4925,
      "ä¸¹": 4926,
      "çıį": 4927,
      "Ch": 4928,
      "å½¹": 4929,
      "éŁµ": 4930,
      "èĤ¡ä¸ľ": 4931,
      "åıĳçĶµ": 4932,
      "å¯¹æĸ¹": 4933,
      "Ġstill": 4934,
      "ä¸īå¹´": 4935,
      "æķĪçĽĬ": 4936,
      "use": 4937,
      "å¾½": 4938,
      "æ¿Ģåıĳ": 4939,
      "Ġline": 4940,
      "åħģè®¸": 4941,
      "åį±æľº": 4942,
      "ĠâĢĶ": 4943,
      "ination": 4944,
      "ä¼ĺåħĪ": 4945,
      "æĸ¹ä¾¿": 4946,
      "Ġprovide": 4947,
      "ason": 4948,
      "æł¡åĽŃ": 4949,
      "å¼ºçļĦ": 4950,
      "çł´åĿı": 4951,
      "AN": 4952,
      "Ġlight": 4953,
      "Ġrisk": 4954,
      "åįµ": 4955,
      "èħĶ": 4956,
      "åħ¶æ¬¡": 4957,
      "Ġcalled": 4958,
      "æķĪåºĶ": 4959,
      "æķĻèĤ²çļĦ": 4960,
      "çĶŁåŃĺ": 4961,
      "èĥĨ": 4962,
      "äº§çĶŁçļĦ": 4963,
      "éº¦": 4964,
      "34": 4965,
      "éĢĶå¾Ħ": 4966,
      "38": 4967,
      "Ġopen": 4968,
      "å¤§æķ°æį®": 4969,
      "åĪ«äºº": 4970,
      "Ġbest": 4971,
      "ery": 4972,
      "ä¸ĢçĤ¹": 4973,
      "ĠTo": 4974,
      "Ġens": 4975,
      "atures": 4976,
      "ä»¥åīį": 4977,
      "ĠInd": 4978,
      "ç¾İæľ¯": 4979,
      "åĨĻä½ľ": 4980,
      "å¤ļåħĥ": 4981,
      "br": 4982,
      "é¢Ī": 4983,
      "æ¿ĢåĬ±": 4984,
      "vices": 4985,
      "It": 4986,
      "Ġtry": 4987,
      "æĶ¯åĩº": 4988,
      "åĽ¾åĥı": 4989,
      "å¯º": 4990,
      "å¿§": 4991,
      "ä¸Ńåįİæ°ĳæĹı": 4992,
      "Ġdepend": 4993,
      "å±ı": 4994,
      "çī©æµģ": 4995,
      "å¾Īéļ¾": 4996,
      "æµ·æ´ĭ": 4997,
      "åĽŀçŃĶ": 4998,
      "æ³°": 4999,
      "æİ¨èįĲ": 5000,
      "æ·¡": 5001,
      "åĲįçļĦ": 5002,
      "éŃı": 5003,
      "è´¦æĪ·": 5004,
      "æľīä¸Ģä¸ª": 5005,
      "ç¾Ĭ": 5006,
      "ä¸ŃåĽ½çī¹èī²ç¤¾ä¼ļä¸»ä¹ī": 5007,
      "å¹´åīį": 5008,
      "ç²Ĺ": 5009,
      "åĨĽäºĭ": 5010,
      "ots": 5011,
      "è¿Ŀåıį": 5012,
      "å®ļæľŁ": 5013,
      "æ´ª": 5014,
      "Ġfin": 5015,
      "èĩ³å°ĳ": 5016,
      "é¦Ļæ¸¯": 5017,
      "of": 5018,
      "åľºæīĢ": 5019,
      "è´«åĽ°": 5020,
      "å°Ĭéĩį": 5021,
      "çļĦæķ°æį®": 5022,
      "éĢĥ": 5023,
      "æĪĴ": 5024,
      "Ġprom": 5025,
      "Ġspecific": 5026,
      "Ġlocal": 5027,
      "ways": 5028,
      "Ġfew": 5029,
      "ET": 5030,
      "nect": 5031,
      "2015": 5032,
      "é©¾é©¶": 5033,
      "è¯Ī": 5034,
      "è¯»ä¹¦": 5035,
      "Ġpresent": 5036,
      "æ·»åĬł": 5037,
      "åı¦ä¸Ģæĸ¹éĿ¢": 5038,
      "æĮ¯åħ´": 5039,
      "tle": 5040,
      "åı¯æĮģç»Ń": 5041,
      "ĠPl": 5042,
      "Ġcheck": 5043,
      "åŃķ": 5044,
      "lease": 5045,
      "æµħ": 5046,
      "æ°ĳéĹ´": 5047,
      "Error": 5048,
      "Ġtext": 5049,
      "å¤§åĬĽ": 5050,
      "lish": 5051,
      "è½¦è¾Ĩ": 5052,
      "æĿľ": 5053,
      "Ġet": 5054,
      "Ġpain": 5055,
      "ä½ĵä¼ļ": 5056,
      "è¯ĨåĪ«": 5057,
      "Ġexpect": 5058,
      "Ġavailable": 5059,
      "å¥ī": 5060,
      "èĤ¿çĺ¤": 5061,
      "Ġopp": 5062,
      "å¹´è½»": 5063,
      "çĶµå½±": 5064,
      "æķ´çĲĨ": 5065,
      "å¼ķåıĳ": 5066,
      "light": 5067,
      "çļĦåīį": 5068,
      "ä¸»å¼ł": 5069,
      "èĢĮä¸įæĺ¯": 5070,
      "Ġlab": 5071,
      "å¦Ĥä»Ĭ": 5072,
      "èĬ¯": 5073,
      "çĸĨ": 5074,
      "31": 5075,
      "Ġapplic": 5076,
      "Ġgra": 5077,
      "åįķåħĥ": 5078,
      "çĻ¾åĪĨ": 5079,
      "Ġhy": 5080,
      "æĭĨ": 5081,
      "Ġlast": 5082,
      "å¼ºåº¦": 5083,
      "ä½İäºİ": 5084,
      "========": 5085,
      "äº«åıĹ": 5086,
      "è²Į": 5087,
      "è¿Ł": 5088,
      "Ġcap": 5089,
      "è½¬æį¢": 5090,
      "åįıä¼ļ": 5091,
      "æµĭéĩı": 5092,
      "Ġdisease": 5093,
      "æĺ¯çĶ±": 5094,
      "iving": 5095,
      "æ¼«": 5096,
      "éĵº": 5097,
      "Ġinvol": 5098,
      "çĶŁæĢģçİ¯å¢ĥ": 5099,
      "Ġblood": 5100,
      "æĢĿè·¯": 5101,
      "å°ĳå¹´": 5102,
      "ç¾¤ä½ĵ": 5103,
      "è£ħç½®": 5104,
      "aving": 5105,
      "æĹĹ": 5106,
      "Ġagainst": 5107,
      "å¹¿ä¸ľ": 5108,
      "ä½ıæĪ¿": 5109,
      "Ġ&": 5110,
      "éĺĢ": 5111,
      "å¹¿åĳĬ": 5112,
      "çģµæ´»": 5113,
      "è´Ŀ": 5114,
      "å°ıåŃ¦": 5115,
      "çº²": 5116,
      "Ar": 5117,
      "til": 5118,
      "æĬ¼": 5119,
      "Ġsit": 5120,
      "cur": 5121,
      "Ġmaterial": 5122,
      "ently": 5123,
      "ä¼ĺè´¨": 5124,
      "æĤŁ": 5125,
      "æ³¡": 5126,
      "Ġmove": 5127,
      "åŁİéķĩ": 5128,
      "Ġresults": 5129,
      "åı¯è§ģ": 5130,
      "å±ķå¼Ģ": 5131,
      "é£İæł¼": 5132,
      "éĩĮçļĦ": 5133,
      "æĶ¾åľ¨": 5134,
      "åĿ¡": 5135,
      "ructure": 5136,
      "æ¸¡": 5137,
      "cy": 5138,
      "Ġsim": 5139,
      "back": 5140,
      "Ġpri": 5141,
      "æĳĺ": 5142,
      "ological": 5143,
      "orn": 5144,
      "æĸĩåĮĸçļĦ": 5145,
      "åĪĢ": 5146,
      "äººçĶŁ": 5147,
      "åĵģè´¨": 5148,
      "ibr": 5149,
      "Ġinterest": 5150,
      "Ġoutput": 5151,
      "æī«": 5152,
      "è®°å¿Ĩ": 5153,
      "å¸¦åĬ¨": 5154,
      "æĸĩçī©": 5155,
      "Ġlarge": 5156,
      "ç»ĥä¹ł": 5157,
      "Ġaddition": 5158,
      "Ġbased": 5159,
      "åİĺ": 5160,
      "util": 5161,
      "ĠAnd": 5162,
      "$$": 5163,
      "48": 5164,
      "ä¾µæĿĥ": 5165,
      "Ġearly": 5166,
      "ĠZ": 5167,
      "å¹¶ä¸įæĺ¯": 5168,
      "Ġsignificant": 5169,
      "åľ¨ä¸ŃåĽ½": 5170,
      "ç¡ķ": 5171,
      "Ġsocial": 5172,
      "âĢ¢": 5173,
      "åıĳè¾¾": 5174,
      "èĤĥ": 5175,
      "å®ŀéªĮå®¤": 5176,
      "æ§": 5177,
      "ength": 5178,
      "},": 5179,
      "çķħ": 5180,
      "åĩ½æķ°": 5181,
      "åıĻ": 5182,
      "ç§¯ç´¯": 5183,
      "For": 5184,
      "oh": 5185,
      "oms": 5186,
      "ams": 5187,
      "å¸¦æĿ¥çļĦ": 5188,
      "äº§åĵģçļĦ": 5189,
      "78": 5190,
      "Ġlanguage": 5191,
      "æĲŀ": 5192,
      "num": 5193,
      "å°ĸ": 5194,
      "ä¸ĭéĿ¢": 5195,
      "ED": 5196,
      "IC": 5197,
      "und": 5198,
      "éĺĶ": 5199,
      "åıĺå¾Ĺ": 5200,
      "è¯ķçĤ¹": 5201,
      "duct": 5202,
      "èĲ¨": 5203,
      "acy": 5204,
      "cle": 5205,
      "Ġreal": 5206,
      "ĠãĢĤ": 5207,
      "Ġdefault": 5208,
      "çļĦè¿ĩç¨ĭ": 5209,
      "icle": 5210,
      "ters": 5211,
      "æİĴæĶ¾": 5212,
      "å¯¸": 5213,
      "ç«¹": 5214,
      "å°ıçļĦ": 5215,
      "ĠHowever": 5216,
      "col": 5217,
      "èµ¢": 5218,
      "Ġarea": 5219,
      "çĶ¨äººåįķä½į": 5220,
      "39": 5221,
      "éŀ": 5222,
      "ç»ŁçŃ¹": 5223,
      "æģ°": 5224,
      "å¤ļæł·": 5225,
      "äºĭæĥħ": 5226,
      "çº³åħ¥": 5227,
      "åıĳæĺİ": 5228,
      "åħ¶å®ĥ": 5229,
      "çī§": 5230,
      "åĸ»": 5231,
      "æľīæķĪçļĦ": 5232,
      "Ġhistory": 5233,
      "ler": 5234,
      "å®ª": 5235,
      "Ġchar": 5236,
      "èĳ£": 5237,
      "Ġbetter": 5238,
      "åģļåĩº": 5239,
      "ances": 5240,
      "IS": 5241,
      "xt": 5242,
      "ä¸Ģä½į": 5243,
      "lobal": 5244,
      "è¯±": 5245,
      "æ³ī": 5246,
      "å¤§åŀĭ": 5247,
      "éģĩåĪ°": 5248,
      "\">": 5249,
      "Ġ199": 5250,
      "éģĹäº§": 5251,
      "ï¼īãĢģ": 5252,
      "Ġtop": 5253,
      "What": 5254,
      "ä¹Łè¦ģ": 5255,
      "çĻ¾å§ĵ": 5256,
      "torch": 5257,
      "è¾Ľ": 5258,
      "æĶ¹è¿Ľ": 5259,
      "opy": 5260,
      "æīĭæľ¯": 5261,
      "æ¯ıä¸Ģä¸ª": 5262,
      "å¸ĤåľºçļĦ": 5263,
      "ç»´æĮģ": 5264,
      "åĭĴ": 5265,
      "çĽ¸ä¿¡": 5266,
      "è±Ĩ": 5267,
      "ication": 5268,
      "çº¦å®ļ": 5269,
      "çĶ±æŃ¤": 5270,
      "è¡¥åģ¿": 5271,
      "åįģåħ«": 5272,
      "ç¢ĳ": 5273,
      "DP": 5274,
      "è¿Ļä¹Ī": 5275,
      "å¤ļæ¬¡": 5276,
      "Ġcho": 5277,
      "åĪĳäºĭ": 5278,
      "æ¢¯": 5279,
      "Ġmean": 5280,
      "æ¡Ĩæŀ¶": 5281,
      "æ°¢": 5282,
      "çī¹æĢ§": 5283,
      "å¢ŀéĢŁ": 5284,
      "65": 5285,
      "Ġtool": 5286,
      "ised": 5287,
      "æĻ°": 5288,
      "crib": 5289,
      "Ġeconom": 5290,
      "é¼»": 5291,
      "åį°åº¦": 5292,
      "Ġlaw": 5293,
      "Ġaccess": 5294,
      "ID": 5295,
      "éĹ²": 5296,
      "éļĨ": 5297,
      "ogn": 5298,
      "åĪºæ¿Ģ": 5299,
      "300": 5300,
      "çĶµåĬĽ": 5301,
      "å¤ĸéĥ¨": 5302,
      "Ġorig": 5303,
      "çĽĪ": 5304,
      "ç§©": 5305,
      "åħ¬å®ī": 5306,
      "Ġair": 5307,
      "å¦Ļ": 5308,
      "åĬ©äºİ": 5309,
      "ç»§æī¿": 5310,
      "ĠâĢĺ": 5311,
      "Ġbenef": 5312,
      "ci": 5313,
      "ä¼Ĳ": 5314,
      "å½¢åĬ¿": 5315,
      "Ġes": 5316,
      "Ġversion": 5317,
      "init": 5318,
      "äººåĬĽ": 5319,
      "è¾ĥä¸º": 5320,
      "dust": 5321,
      "å»ºæĪĲ": 5322,
      "Ġbecome": 5323,
      "ling": 5324,
      "Ġbus": 5325,
      "Ġdiff": 5326,
      "ä¸»å¸Ń": 5327,
      "é¦ĸæ¬¡": 5328,
      "ype": 5329,
      "æ¾³": 5330,
      "Ġorder": 5331,
      "å°ĺ": 5332,
      "CD": 5333,
      "ee": 5334,
      "å¹¶éĿŀ": 5335,
      "ä¾Ŀèµĸ": 5336,
      "æĭĵå±ķ": 5337,
      "éĻ¢æł¡": 5338,
      "é¢ĨåŁŁçļĦ": 5339,
      "Ġwhe": 5340,
      "æľŁéĻĲ": 5341,
      "ç»ĵè®º": 5342,
      "ocus": 5343,
      "éĺ²æ²»": 5344,
      "ä¸Ńæľī": 5345,
      "æĴ¤": 5346,
      "Ġparticular": 5347,
      "çĶŁæĪĲ": 5348,
      "Ġhome": 5349,
      "âĳ¢": 5350,
      "ä¸īæĺ¯": 5351,
      "æĽ´ä¸º": 5352,
      "çļĦè¡Įä¸º": 5353,
      "èµģ": 5354,
      "éĥ¡": 5355,
      "æł¼å±Ģ": 5356,
      "If": 5357,
      "atural": 5358,
      "åħ¬å¸ĥ": 5359,
      "amp": 5360,
      "ç§Łèµģ": 5361,
      "è¯´çļĦ": 5362,
      "çİ»": 5363,
      "è¿Ļå°±æĺ¯": 5364,
      "èī°": 5365,
      "å¹¼åĦ¿åĽŃ": 5366,
      "è¯¦ç»Ĩ": 5367,
      "åĩºåıĳ": 5368,
      "è¿Ľç¨ĭ": 5369,
      "Ġrange": 5370,
      "Ġsever": 5371,
      "Ġcontrol": 5372,
      "ä¹łè¿ĳå¹³æĢ»ä¹¦è®°": 5373,
      "åŃŁ": 5374,
      "Ġlim": 5375,
      "åįģå¹´": 5376,
      "å±ĤéĿ¢": 5377,
      "éĤ¦": 5378,
      "Ġcond": 5379,
      "åĻ¨çļĦ": 5380,
      "åŁİä¹¡": 5381,
      "pend": 5382,
      "çĳŀ": 5383,
      "æĭľ": 5384,
      "Ġlow": 5385,
      "å¹³æĸ¹": 5386,
      "é©»": 5387,
      "main": 5388,
      "æįķ": 5389,
      "ç²ĺ": 5390,
      "EN": 5391,
      "let": 5392,
      "ãĢĭãĢģãĢĬ": 5393,
      "agn": 5394,
      "åįģåĽĽ": 5395,
      "bu": 5396,
      "åĲįç§°": 5397,
      "åľ¨è¿Ļ": 5398,
      "å¤§åŃ¦çĶŁ": 5399,
      "37": 5400,
      "ches": 5401,
      "å¹³çŃī": 5402,
      "æī§æ³ķ": 5403,
      "ression": 5404,
      "å·¡": 5405,
      "ðŁļ": 5406,
      "åŃ¦ä½į": 5407,
      "essage": 5408,
      "æıŃ": 5409,
      "åıĳè¡Į": 5410,
      "èĤ¾": 5411,
      "å°±èĥ½": 5412,
      "çĶµè§Ĩ": 5413,
      "åŁºç¡Ģè®¾æĸ½": 5414,
      "ç§©åºı": 5415,
      "Ġnon": 5416,
      "åħ¬æ°ĳ": 5417,
      "è®©åŃ¦çĶŁ": 5418,
      "ĠUniversity": 5419,
      "ole": 5420,
      "âĦ": 5421,
      "å®¿": 5422,
      "åľ°çĲĨ": 5423,
      "ĠWh": 5424,
      "PC": 5425,
      "ç¼ĸè¾ĳ": 5426,
      "åŀĤ": 5427,
      "çĹħäºº": 5428,
      "çļĦçĶŁæ´»": 5429,
      "ä¸Ńåħ±": 5430,
      "å®ŀä½ĵ": 5431,
      "1000": 5432,
      "ä¸ĩäºº": 5433,
      "Ġchanges": 5434,
      "æ¬£": 5435,
      "Ġtraining": 5436,
      "æĺ¯ä»¥": 5437,
      "åŃĲå¥³": 5438,
      "hip": 5439,
      "ç²¾åĩĨ": 5440,
      "åĦĴ": 5441,
      "æ··åĲĪ": 5442,
      "Ġaffect": 5443,
      "ilt": 5444,
      "ä»£çĲĨ": 5445,
      "ãĢĤãĢĬ": 5446,
      "Ġold": 5447,
      "Ġconf": 5448,
      "Ġenc": 5449,
      "ama": 5450,
      "è¯¾é¢ĺ": 5451,
      "ä¸ªä½ĵ": 5452,
      "ç®Ģç§°": 5453,
      "Ġmaking": 5454,
      "èĳĹä½ľ": 5455,
      "é«ĺèĢĥ": 5456,
      "Ġcause": 5457,
      "ï¼ļãĢĮ": 5458,
      "å¤©çĦ¶": 5459,
      "Ġ15": 5460,
      "mit": 5461,
      "éĺĲ": 5462,
      "ĠIs": 5463,
      "æ¨¡åĿĹ": 5464,
      "ĠWhen": 5465,
      "è¡Ģç®¡": 5466,
      "uv": 5467,
      "å¯Ħ": 5468,
      "ç¬¬åħŃ": 5469,
      "è¯»èĢħ": 5470,
      "ðŁļ¨": 5471,
      "ding": 5472,
      "èĴ¸": 5473,
      "èĤ¯å®ļ": 5474,
      "eps": 5475,
      "Ġwomen": 5476,
      "allel": 5477,
      "æľĹ": 5478,
      "å®¶çļĦ": 5479,
      "è§Ĵèī²": 5480,
      "ä¼łç»ŁçļĦ": 5481,
      "Ġkeep": 5482,
      "ann": 5483,
      "èĤ¤": 5484,
      "éĥĳ": 5485,
      "......": 5486,
      "ç»ıåħ¸": 5487,
      "æıĲäº¤": 5488,
      "åĨĽéĺŁ": 5489,
      "æŃ£ç¡®çļĦ": 5490,
      "ĠSp": 5491,
      "ä»°": 5492,
      "æ°Ľ": 5493,
      "æĿĥåĬĽ": 5494,
      "èĮĥåĽ´åĨħ": 5495,
      "è´Łè´£äºº": 5496,
      "æµģéĩı": 5497,
      "ĠEng": 5498,
      "sp": 5499,
      "çļĦåħ³éĶ®": 5500,
      "Ġimpact": 5501,
      "ik": 5502,
      "åĨĴ": 5503,
      "ilar": 5504,
      "Ġmeans": 5505,
      "æľīæĹ¶": 5506,
      "ç¬¬ä¸Ģä¸ª": 5507,
      "illion": 5508,
      "ä»²è£ģ": 5509,
      "bed": 5510,
      "orld": 5511,
      "å¤§éĩıçļĦ": 5512,
      "åĲĮä¸Ģ": 5513,
      "åĨħæ¶µ": 5514,
      "ables": 5515,
      "åķĨåĬ¡": 5516,
      "value": 5517,
      "é©¬åħĭæĢĿä¸»ä¹ī": 5518,
      "ograph": 5519,
      "apt": 5520,
      "Ġintern": 5521,
      "Ġvir": 5522,
      "å¼ºåĪ¶": 5523,
      "åħ±äº§åħļ": 5524,
      "Ġz": 5525,
      "ç®¡çĲĨçļĦ": 5526,
      "Ġpossible": 5527,
      "çĶµè¯Ŀ": 5528,
      "äº§éĩı": 5529,
      "æĿĳæ°ĳ": 5530,
      "çĭ¬çī¹": 5531,
      "olution": 5532,
      "Ġanother": 5533,
      "Ġpotential": 5534,
      "Re": 5535,
      "ç¤¾ä¼ļçļĦ": 5536,
      "æ¢ħ": 5537,
      "åĪĩå®ŀ": 5538,
      "æłı": 5539,
      "æĬ¢": 5540,
      "æ³µ": 5541,
      "ission": 5542,
      "äºķ": 5543,
      "åĬłéĢŁ": 5544,
      "å§»": 5545,
      "âĦĥ": 5546,
      "arc": 5547,
      "Ġprevent": 5548,
      "åı¬å¼Ģ": 5549,
      "sy": 5550,
      "å¹¶æ²¡æľī": 5551,
      "Ġloss": 5552,
      "Ġdri": 5553,
      "æ³ķçļĦ": 5554,
      "æŃ¤æĹ¶": 5555,
      "ðŁļ¨ðŁļ¨": 5556,
      "åĢºåĪ¸": 5557,
      "As": 5558,
      "çĶŁæ´»çļĦ": 5559,
      "lished": 5560,
      "èĩªä¿¡": 5561,
      "æĽ¾ç»ı": 5562,
      "æµĻæ±Ł": 5563,
      "å°±è¦ģ": 5564,
      "api": 5565,
      "fo": 5566,
      "éĥ½è¦ģ": 5567,
      "ormal": 5568,
      "æ±Łèĭı": 5569,
      "åĴĮåħ¶ä»ĸ": 5570,
      "Ġbi": 5571,
      "Ġhig": 5572,
      "å¯ĨåĪĩ": 5573,
      "Ġbelie": 5574,
      "çĴĥ": 5575,
      "Ġseveral": 5576,
      "ä»¥ä¸ĬçļĦ": 5577,
      "éĥ½åľ¨": 5578,
      "åįģä¸ī": 5579,
      "è¡¥è´´": 5580,
      "ç£·": 5581,
      "å·¨å¤§": 5582,
      ".(": 5583,
      "çī¹å®ļ": 5584,
      "ains": 5585,
      "Ġsource": 5586,
      "åĽłèĢĮ": 5587,
      "agement": 5588,
      "ights": 5589,
      "çº³ç¨İ": 5590,
      "55": 5591,
      "ä¸įèī¯": 5592,
      "æ³ķå®ļ": 5593,
      "å§Ķä¼ļ": 5594,
      "49": 5595,
      "Ġsuccess": 5596,
      "erve": 5597,
      "éĻ¶": 5598,
      "aster": 5599,
      "é«ĺçº§": 5600,
      "å¢ĵ": 5601,
      "po": 5602,
      "Ġsecond": 5603,
      "Ġresponse": 5604,
      "æĬĳåĪ¶": 5605,
      "ĠX": 5606,
      "ster": 5607,
      "æĬĢå·§": 5608,
      "ajor": 5609,
      "EC": 5610,
      "ï½ŀ": 5611,
      "äººå¤§": 5612,
      "åĽ¾çīĩ": 5613,
      "çıł": 5614,
      "æħİ": 5615,
      "åģľæŃ¢": 5616,
      "å±Ī": 5617,
      "ç»ıçĲĨ": 5618,
      "çĽ¸ç»ĵåĲĪ": 5619,
      "åįģä¹Ŀ": 5620,
      "osp": 5621,
      "å£°éŁ³": 5622,
      "æĸ¤": 5623,
      "çŃīçº§": 5624,
      "æĦŁåĪ°": 5625,
      "Ġi": 5626,
      "çļĦåıĺåĮĸ": 5627,
      "Ġdel": 5628,
      "å¼Ĥå¸¸": 5629,
      "Ġbehav": 5630,
      "çĲĨçĶ±": 5631,
      "å·¥ä¼¤": 5632,
      "æľĢè¿ĳ": 5633,
      "å°ĳæķ°": 5634,
      "Ġtoo": 5635,
      "ç«ĭåį³": 5636,
      "åĽĽå·Ŀ": 5637,
      "Ġperiod": 5638,
      "Ġfeel": 5639,
      "ĠPh": 5640,
      "èĪĴ": 5641,
      "Ġoccur": 5642,
      "IP": 5643,
      "éĽ¾": 5644,
      "aper": 5645,
      "ä¸Ģæĸ¹": 5646,
      "ories": 5647,
      "å½ĵä»£": 5648,
      "2014": 5649,
      "å¤ĸçļĦ": 5650,
      "æ´»åĬ¨çļĦ": 5651,
      "Ġvarious": 5652,
      "æĿ°": 5653,
      "ç¨Ģ": 5654,
      "Ġdr": 5655,
      "çĤŃ": 5656,
      "ards": 5657,
      "Ġcase": 5658,
      "ä¸įå¤Ł": 5659,
      "å½¢æĪĲäºĨ": 5660,
      "æ±¤": 5661,
      "docs": 5662,
      "âĸ": 5663,
      "Ġhapp": 5664,
      "éĶģ": 5665,
      "è®°è½½": 5666,
      "äººæ°ĳå¸ģ": 5667,
      "ĠAmerican": 5668,
      "Ġappe": 5669,
      "url": 5670,
      "ĠIm": 5671,
      "44": 5672,
      "åľ³": 5673,
      "åĸĿ": 5674,
      "è¾ĵåħ¥": 5675,
      "ç©·": 5676,
      "Ġcontribut": 5677,
      "åĭŁ": 5678,
      "ä¾ĿçĦ¶": 5679,
      "äºĴåĬ¨": 5680,
      "].": 5681,
      "åį³åı¯": 5682,
      "æľºåĻ¨äºº": 5683,
      "å¤§å¤§": 5684,
      "å¯¼åĲĳ": 5685,
      "åİ»å¹´": 5686,
      "Ġrole": 5687,
      ");": 5688,
      "ä¼łæī¿": 5689,
      "ests": 5690,
      "èĢĥå¯Ł": 5691,
      "lab": 5692,
      "æĭ¼": 5693,
      "èŀº": 5694,
      "TP": 5695,
      "Ġfac": 5696,
      "çīµ": 5697,
      "Ġpress": 5698,
      "æ¸ħæĻ°": 5699,
      "å°Ŀè¯ķ": 5700,
      "çļĦæĬĢæľ¯": 5701,
      "ä»¥ä¸º": 5702,
      "idence": 5703,
      "çİ»çĴĥ": 5704,
      "Ġfil": 5705,
      "å¥ĳ": 5706,
      "æ·±åľ³": 5707,
      "mun": 5708,
      "Ġlay": 5709,
      "ived": 5710,
      "è£ħå¤ĩ": 5711,
      "Ġproblem": 5712,
      "åİĺç±³": 5713,
      "gin": 5714,
      "äºĭåĬ¡": 5715,
      "æĸľ": 5716,
      "å¥³æĢ§": 5717,
      "å©ļå§»": 5718,
      "æĪĲåĪĨ": 5719,
      "raw": 5720,
      "éĤ»": 5721,
      "å¥ĭæĸĹ": 5722,
      "cription": 5723,
      "ait": 5724,
      "ä¸¾åĬŀ": 5725,
      "æĽ´æĸ°": 5726,
      "è¯ģä¹¦": 5727,
      "å®ħ": 5728,
      "æĺ¯ä¸ŃåĽ½": 5729,
      "resent": 5730,
      "oin": 5731,
      "erc": 5732,
      "Ġsince": 5733,
      "ĊãĢĢ": 5734,
      "è®¿éĹ®": 5735,
      "å¤º": 5736,
      "æĬ±": 5737,
      "Ġthings": 5738,
      "çļĦçī¹çĤ¹": 5739,
      "å¹¶åľ¨": 5740,
      "ä½¿çĶ¨çļĦ": 5741,
      "åĴĮåıĳå±ķ": 5742,
      "Ġflow": 5743,
      "å¯¹åºĶ": 5744,
      "è¾ī": 5745,
      "rist": 5746,
      "èĭ¥å¹²": 5747,
      "Ġfocus": 5748,
      "å¯¹æ¯Ķ": 5749,
      "Ġ16": 5750,
      "mod": 5751,
      "ä¼ļæľī": 5752,
      "åī©": 5753,
      "å¹¸ç¦ı": 5754,
      "åĴĮå¹³": 5755,
      "çİ°éĩĳ": 5756,
      "æį·": 5757,
      "æ¸Ĺ": 5758,
      "Ġsystems": 5759,
      "ither": 5760,
      "Ġshort": 5761,
      "åĲĪæł¼": 5762,
      "ones": 5763,
      "æĬ¥éģĵ": 5764,
      "äºīè®®": 5765,
      "Ġcost": 5766,
      "Ġfore": 5767,
      "éĻķ": 5768,
      "é«ĺäºİ": 5769,
      "å¤ļå¹´": 5770,
      "æĽ´æĺ¯": 5771,
      "äº§ä¸ļéĵ¾": 5772,
      "ips": 5773,
      "çĵ¶": 5774,
      "Ġgovernment": 5775,
      "çļĦåŃ¦ä¹ł": 5776,
      "ä¸ŃéĹ´": 5777,
      "åħħæ»¡": 5778,
      "åĬ³åĬ¨èĢħ": 5779,
      "lass": 5780,
      "åĿĽ": 5781,
      "åı¯ä»¥åľ¨": 5782,
      "åįģäºĶ": 5783,
      "å°½éĩı": 5784,
      "çº¢èī²": 5785,
      "åı¥è¯Ŀ": 5786,
      "è¸ª": 5787,
      "ians": 5788,
      "æĺ¯æľĢ": 5789,
      "Ġuser": 5790,
      "åŃ©åŃĲä»¬": 5791,
      "å°Ĩåħ¶": 5792,
      "æĭĽçĶŁ": 5793,
      "Ġassoci": 5794,
      "çŁ©": 5795,
      "Ġareas": 5796,
      "è¯Ĺäºº": 5797,
      "ä»¤äºº": 5798,
      "èĻļæĭŁ": 5799,
      "Ġfield": 5800,
      "éĿŀæ³ķ": 5801,
      "èµ°åĲĳ": 5802,
      "Ġdeterm": 5803,
      "æĬļ": 5804,
      "è©": 5805,
      "çļĦä¿¡æģ¯": 5806,
      "æŁĶ": 5807,
      "Ġexist": 5808,
      "por": 5809,
      "éĻµ": 5810,
      "æĹ¥çĽĬ": 5811,
      "å¢ŀåĢ¼": 5812,
      "èĩ³ä»Ĭ": 5813,
      "over": 5814,
      "Ġpercent": 5815,
      "äººæķ°": 5816,
      "Ġneeds": 5817,
      "CO": 5818,
      "ä¸§": 5819,
      "åħ¨çľģ": 5820,
      "çĶŁæ´»ä¸Ń": 5821,
      "Ġtypes": 5822,
      "ek": 5823,
      "ä¸ªæĢ§": 5824,
      "åĲ¦åĪĻ": 5825,
      "æ¡£æ¡Ī": 5826,
      "Ġtr": 5827,
      "è¿ĽèĢĮ": 5828,
      "________": 5829,
      "rame": 5830,
      "æĺ¯æľī": 5831,
      "æ¯ģ": 5832,
      "çĤī": 5833,
      "ä¸īè§Ĵ": 5834,
      "éª¤": 5835,
      "åĶ¯ä¸Ģ": 5836,
      "äººå·¥æĻºèĥ½": 5837,
      "Ġdue": 5838,
      "Ġele": 5839,
      "Ġ12": 5840,
      "èĬĤèĥ½": 5841,
      "é¥²": 5842,
      "çĶ³æĬ¥": 5843,
      "é¼ł": 5844,
      "é¢ľèī²": 5845,
      "ä¸»ç®¡éĥ¨éĹ¨": 5846,
      "ingle": 5847,
      "åĲĮæĦı": 5848,
      "ina": 5849,
      "ãĢĤãĢį": 5850,
      "å»·": 5851,
      "åĮºçļĦ": 5852,
      "åľ°çļĦ": 5853,
      "ception": 5854,
      "çĶµæºĲ": 5855,
      "Ġlik": 5856,
      "urope": 5857,
      "fun": 5858,
      "æĻĵ": 5859,
      "åĨ»": 5860,
      "Ġanim": 5861,
      "è¿Ļæ¬¡": 5862,
      "urther": 5863,
      "ä¿¡ä»»": 5864,
      "ä¸Ĭæ¶¨": 5865,
      "é½¿": 5866,
      "ç¡®å®ŀ": 5867,
      "åĳ¨åĽ´": 5868,
      "Ġamong": 5869,
      "Ġturn": 5870,
      "åĩºæĿ¥çļĦ": 5871,
      "ä»£çłģ": 5872,
      "ä¼łæĦŁ": 5873,
      "åħĪåĲİ": 5874,
      "oks": 5875,
      "Ġfull": 5876,
      "æľĢå¥½": 5877,
      "çŃ¾è®¢": 5878,
      "éĤ®": 5879,
      "æ³ķåĽ½": 5880,
      "èĩªè¡Į": 5881,
      "åŃĶåŃĲ": 5882,
      "ique": 5883,
      "Ġpack": 5884,
      "Ġfuture": 5885,
      "å¯¹æŃ¤": 5886,
      "éĽĨæĪĲ": 5887,
      "af": 5888,
      "ton": 5889,
      "å¯¹åħ¶": 5890,
      "éķ¿çļĦ": 5891,
      "ç¢°": 5892,
      "å±ħä½ı": 5893,
      "è¯´æ³ķ": 5894,
      "æĹ¥èµ·": 5895,
      "Ġcreat": 5896,
      "AD": 5897,
      "è¾Ĳ": 5898,
      "äºĭçī©": 5899,
      "Ġgiven": 5900,
      "ended": 5901,
      "çļĦä¼ģä¸ļ": 5902,
      "åıĺæĪĲ": 5903,
      "Ġcertain": 5904,
      "ä½Ĩåľ¨": 5905,
      "æľĪä»½": 5906,
      "è¶³å¤Ł": 5907,
      "ends": 5908,
      "å®¡ç¾İ": 5909,
      "ML": 5910,
      "èĩªè§ī": 5911,
      "æ²³åįĹ": 5912,
      "ĠUnited": 5913,
      "Ġcal": 5914,
      "å¾¡": 5915,
      "å¤§å¹ħ": 5916,
      "çİ°çĬ¶": 5917,
      "èĥģ": 5918,
      "Ġcomb": 5919,
      "Ġplant": 5920,
      "ĠTe": 5921,
      "è®¤è¯ģ": 5922,
      "éĩĬæĶ¾": 5923,
      "Ġmajor": 5924,
      "ç§ĳåŃ¦å®¶": 5925,
      "ç»Ŀå¯¹": 5926,
      "åįļçī©": 5927,
      "Ġlevels": 5928,
      "è´¤": 5929,
      "roll": 5930,
      "asing": 5931,
      "ortun": 5932,
      "åıįå¤į": 5933,
      "åĪĿæŃ¥": 5934,
      "Ġexperience": 5935,
      "å®ıè§Ĥ": 5936,
      "ĠäºĮ": 5937,
      "Ġparent": 5938,
      "éĢļéģĵ": 5939,
      "ä½łä»¬": 5940,
      "Ġspecies": 5941,
      "Ġcountry": 5942,
      "aps": 5943,
      "Ġland": 5944,
      "æķħéļľ": 5945,
      "Ġnear": 5946,
      "æĹģ": 5947,
      "Ġindust": 5948,
      "Ġmot": 5949,
      "åĪ°åºķ": 5950,
      "Ġrespons": 5951,
      "åı¯ä»¥éĢļè¿ĩ": 5952,
      "å¼ºçĥĪ": 5953,
      "åĪĻæĺ¯": 5954,
      "åĨ²çªģ": 5955,
      "yle": 5956,
      "éĿ¢åĲĳ": 5957,
      "èģĮèĥ½": 5958,
      "åİ¿çº§": 5959,
      "åĩºçİ°äºĨ": 5960,
      "åĺī": 5961,
      "ledge": 5962,
      "æĺİçĻ½": 5963,
      "èĬĤçĤ¹": 5964,
      "Ġconsum": 5965,
      "Ġ\\": 5966,
      "è§£æĶ¾": 5967,
      "æĬ¤çĲĨ": 5968,
      "è¾ĵåĩº": 5969,
      "Ġraise": 5970,
      "é«ĺéĢŁ": 5971,
      "åŃĺåľ¨çļĦ": 5972,
      "2023": 5973,
      "Ġprotect": 5974,
      "çĽĨ": 5975,
      "Ġinit": 5976,
      "æĪĳä»¬è¦ģ": 5977,
      "Ġamount": 5978,
      "Ġleg": 5979,
      "å¡ĳæĸĻ": 5980,
      "Ġtreatment": 5981,
      "egr": 5982,
      "çļĦæķĻèĤ²": 5983,
      "ä¸Ģæī¹": 5984,
      "èµ¤": 5985,
      "éĶĭ": 5986,
      "åĲĦåĽ½": 5987,
      "éĥģ": 5988,
      "åıĺéĿ©": 5989,
      "æľīåı¯èĥ½": 5990,
      "ç¡«": 5991,
      "è´§çī©": 5992,
      "ession": 5993,
      "éĴ»": 5994,
      "Ġspace": 5995,
      "é¢ĳçİĩ": 5996,
      "æĽ´å¥½åľ°": 5997,
      "ires": 5998,
      "Ġpy": 5999,
      "array": 6000,
      "Ġdetail": 6001,
      "éĩįå¤į": 6002,
      "çĶµèĦĳ": 6003,
      "ware": 6004,
      "ç´«": 6005,
      "ç¢İ": 6006,
      "Ġable": 6007,
      "æĦ¿æĦı": 6008,
      "é¢Ħè®¡": 6009,
      "ĠInst": 6010,
      "ired": 6011,
      "Ġtimes": 6012,
      "Ġscient": 6013,
      "æİ¢è®¨": 6014,
      "oring": 6015,
      "è¿Ļå°±": 6016,
      "éĺ²æİ§": 6017,
      "ä¸Ģå¸¦": 6018,
      "æ°¨": 6019,
      "fact": 6020,
      "ç¨İæĶ¶": 6021,
      "æŁĲç§į": 6022,
      "depend": 6023,
      "åį«æĺŁ": 6024,
      "éĩĳèŀįæľºæŀĦ": 6025,
      "çļĦå¿ĥ": 6026,
      "å·©": 6027,
      "åĬłä¸Ĭ": 6028,
      "è¢ĭ": 6029,
      "Ġdocument": 6030,
      "To": 6031,
      "çļĦä¸»": 6032,
      "####": 6033,
      "æ¯ķä¸ļçĶŁ": 6034,
      "ules": 6035,
      "åģļæ³ķ": 6036,
      "æłĳç«ĭ": 6037,
      "ç¿»è¯ĳ": 6038,
      "Ġfamily": 6039,
      "mat": 6040,
      "æľīåĬ©äºİ": 6041,
      "Ġpost": 6042,
      "Ġothers": 6043,
      "}\")": 6044,
      "æĽ¼": 6045,
      "ored": 6046,
      "AC": 6047,
      "äº¤æį¢": 6048,
      "mark": 6049,
      "è·¯å¾Ħ": 6050,
      "å®ŀçİ°äºĨ": 6051,
      "åĿļå®ļ": 6052,
      "éģµå®Ī": 6053,
      "Ġdict": 6054,
      "Ġnet": 6055,
      "inter": 6056,
      "æ°Ķä½ĵ": 6057,
      "é¦Ī": 6058,
      "åĲ«éĩı": 6059,
      "icy": 6060,
      "ä¿¡æģ¯åĮĸ": 6061,
      "æīĢæľīçļĦ": 6062,
      "åıĳèĤ²": 6063,
      "æłĩåĩĨåĮĸ": 6064,
      "ä¸°å¯ĮçļĦ": 6065,
      "Ġbusiness": 6066,
      "Ġconditions": 6067,
      "ird": 6068,
      "é¥®é£Ł": 6069,
      "çĶ¨æĿ¥": 6070,
      "æķ°æį®åºĵ": 6071,
      "ç¬¬ä¸Ģæ¬¡": 6072,
      "42": 6073,
      "çº¿ä¸Ĭ": 6074,
      "çļĦäºĭæĥħ": 6075,
      "Ġimprove": 6076,
      "ä¸Ģä»£": 6077,
      "place": 6078,
      "Ġspecial": 6079,
      "äººç¾¤": 6080,
      "Ġcr": 6081,
      "Ġmen": 6082,
      "æµĨ": 6083,
      "åľ°åĿĢ": 6084,
      "å§¿": 6085,
      "çłĶç©¶éĻ¢": 6086,
      "Ġcome": 6087,
      "ç¦»å©ļ": 6088,
      "indow": 6089,
      "åŃ£åº¦": 6090,
      "ç»ıæµİçļĦ": 6091,
      "Ġacross": 6092,
      "Ġmulti": 6093,
      "éĶ»": 6094,
      "çº¿çļĦ": 6095,
      "å¿ĹæĦ¿": 6096,
      "å·¨å¤§çļĦ": 6097,
      "æĥ³è¦ģ": 6098,
      "å¯»æī¾": 6099,
      "è¾Ĳå°Ħ": 6100,
      "ä¹Łå°±": 6101,
      "çĽĳæİ§": 6102,
      "èĴĻåı¤": 6103,
      "env": 6104,
      "å°ıè¯´": 6105,
      "èįĴ": 6106,
      "ĠWhat": 6107,
      "ä¸ľåĮĹ": 6108,
      "å¿ĥçļĦ": 6109,
      "Ġsw": 6110,
      "è°¨": 6111,
      "æľ¬ç§ĳ": 6112,
      "Ġconsider": 6113,
      "åĲĮå¿Ĺ": 6114,
      "éģĹä¼ł": 6115,
      "idden": 6116,
      "åĽ½å¤ĸ": 6117,
      "Ġvol": 6118,
      "Ġsay": 6119,
      "å»ī": 6120,
      "æīĢè¿°": 6121,
      "ç¨İåĬ¡": 6122,
      "ä¹¡æĿĳæĮ¯åħ´": 6123,
      "ç¦ģæŃ¢": 6124,
      "æĸ°åĨł": 6125,
      "å¤±è´¥": 6126,
      "æĲľç´¢": 6127,
      "çº¹": 6128,
      "åı¯éĿł": 6129,
      "Ġincrease": 6130,
      "Ġver": 6131,
      "çº¤ç»´": 6132,
      "éĵ¸": 6133,
      "Ġsugg": 6134,
      "çļĦè¿ĩç¨ĭä¸Ń": 6135,
      "æ¨¡æĭŁ": 6136,
      "How": 6137,
      "ration": 6138,
      "æ¸Ķ": 6139,
      "ĠAt": 6140,
      "ĠEurope": 6141,
      "å±±ä¸ľ": 6142,
      "èħ¾": 6143,
      "Pro": 6144,
      "Ġview": 6145,
      "èį¯åĵģ": 6146,
      "åĽ¢ç»ĵ": 6147,
      "ä¼¤å®³": 6148,
      "ä¼¼ä¹İ": 6149,
      "Ġrequired": 6150,
      "ä¾¯": 6151,
      "æĥ©": 6152,
      "ç¨į": 6153,
      "Ġrece": 6154,
      "rag": 6155,
      "ush": 6156,
      "åĽŀæĶ¶": 6157,
      "izer": 6158,
      "å¤«å¦»": 6159,
      "vious": 6160,
      "ä¸Ģæ®µ": 6161,
      "Ġyoung": 6162,
      "åĩłå¹´": 6163,
      "çŁŃæľŁ": 6164,
      "çİ°æľī": 6165,
      "ä¿ĿåŃĺ": 6166,
      "è§£éĻ¤": 6167,
      "æ©": 6168,
      "æľīä»Ģä¹Ī": 6169,
      "ç¥Ń": 6170,
      "Ġnecess": 6171,
      "Ġcomput": 6172,
      "OR": 6173,
      "Ġä¸ī": 6174,
      "æ¶Īæģ¯": 6175,
      "Ġproblems": 6176,
      "gen": 6177,
      "çļĦç»ĵæŀľ": 6178,
      "ä¸Ģç³»åĪĹ": 6179,
      "Ġrest": 6180,
      "æİ¥åı£": 6181,
      "istic": 6182,
      "Ġcontent": 6183,
      "Ġrecord": 6184,
      "56": 6185,
      "åĮ¹": 6186,
      "åĲĪæĪĲ": 6187,
      "æºª": 6188,
      "ably": 6189,
      "æİ¥è¿ĳ": 6190,
      "æĭħä»»": 6191,
      "åľ°åĮºçļĦ": 6192,
      "xy": 6193,
      "èĻİ": 6194,
      "Ġcells": 6195,
      "çĶµå®¹": 6196,
      "åĮºåĿĹ": 6197,
      "ç¼ĸåĪ¶": 6198,
      "rel": 6199,
      "åľ¨ä¸Ģèµ·": 6200,
      "éĹ´çļĦ": 6201,
      "è°ĥçłĶ": 6202,
      "Ġnext": 6203,
      "ç½Ĺæĸ¯": 6204,
      "Com": 6205,
      "pes": 6206,
      "æł½": 6207,
      "ç®Ĺæ³ķ": 6208,
      "etry": 6209,
      "uation": 6210,
      "å¿Ļ": 6211,
      "æ°ĳçĶŁ": 6212,
      "ç¼Ŀ": 6213,
      "åįĹäº¬": 6214,
      "Ġlet": 6215,
      "ibility": 6216,
      "fer": 6217,
      "æľĢä½İ": 6218,
      "æĮĩæĮ¥": 6219,
      "ember": 6220,
      "åŃĺæ¬¾": 6221,
      "çº½": 6222,
      "å®īå¾½": 6223,
      "æ¯įäº²": 6224,
      "trans": 6225,
      "ä¸Ģè·¯": 6226,
      "Ġbrain": 6227,
      "Ġlarg": 6228,
      "uration": 6229,
      "å¹¿å·ŀ": 6230,
      "icense": 6231,
      "è¾ĥé«ĺ": 6232,
      "46": 6233,
      "äººä¸İ": 6234,
      "ç»ıæµİç¤¾ä¼ļ": 6235,
      "éħįå¥Ĺ": 6236,
      "æĴŀ": 6237,
      "API": 6238,
      "åĬ²": 6239,
      "åīĳ": 6240,
      "å¤±åİ»": 6241,
      "æī¶è´«": 6242,
      "85": 6243,
      "çĲ´": 6244,
      "åīª": 6245,
      "åıĤæķ°": 6246,
      "æ¹ĸåįĹ": 6247,
      "Ġtarget": 6248,
      "äººå£«": 6249,
      "é«ĺä¸Ń": 6250,
      "è½¬è®©": 6251,
      "ysis": 6252,
      "Ġmonth": 6253,
      "å¾ģæĶ¶": 6254,
      "ä¸Ńå°ıä¼ģä¸ļ": 6255,
      "å¸¸å¸¸": 6256,
      "###": 6257,
      "æī©å±ķ": 6258,
      "æ¬ł": 6259,
      "ç§įç±»": 6260,
      "ç»Łæ²»": 6261,
      "çıŃçº§": 6262,
      "Ġsays": 6263,
      "ott": 6264,
      "aces": 6265,
      "æ¸ħæ´ģ": 6266,
      "æĵ¦": 6267,
      "èĵĦ": 6268,
      "Ġgroups": 6269,
      "Ġphysical": 6270,
      "ators": 6271,
      "ilities": 6272,
      "ä¹ĭè·¯": 6273,
      "Ġnatural": 6274,
      "å»ºè®¾çļĦ": 6275,
      "Ġcompon": 6276,
      "ä»·åĢ¼è§Ĥ": 6277,
      "åħ¬åħĥ": 6278,
      "èī²å½©": 6279,
      "éĩĩéĽĨ": 6280,
      "çĪ¶äº²": 6281,
      "Ġinvest": 6282,
      "cript": 6283,
      "æĸ°èĥ½æºĲ": 6284,
      "çĿĢåĬĽ": 6285,
      "ĠUS": 6286,
      "åĩºçīĪç¤¾": 6287,
      "çļĩå¸Ŀ": 6288,
      "åĬłä»¥": 6289,
      "atus": 6290,
      "Ġcrit": 6291,
      "åĩī": 6292,
      "éĥŃ": 6293,
      "å£³": 6294,
      "æ¯ıä¸Ģ": 6295,
      "ething": 6296,
      "Ġtemper": 6297,
      "go": 6298,
      "åķĬ": 6299,
      "Ġabove": 6300,
      "Ġtri": 6301,
      "è´Łæĭħ": 6302,
      "èĦ±è´«": 6303,
      "çļĦç®¡çĲĨ": 6304,
      "ä¼ª": 6305,
      "Ġcustom": 6306,
      "lection": 6307,
      "èī¾": 6308,
      "Ġalways": 6309,
      "çľģçº§": 6310,
      "æĳĩ": 6311,
      "åħħåĪĨåıĳæĮ¥": 6312,
      "bl": 6313,
      "èį¡": 6314,
      "99": 6315,
      "Ġtechnology": 6316,
      "éģµå¾ª": 6317,
      "æĸĩæľ¬": 6318,
      "è°ľ": 6319,
      "èĲ¥ä¸ļ": 6320,
      "èĸªéħ¬": 6321,
      "Ġage": 6322,
      "eral": 6323,
      "ä¸įçŁ¥": 6324,
      "åĳ½è¿Ĳ": 6325,
      "SI": 6326,
      "ech": 6327,
      "ï¼ĮãĢĬ": 6328,
      "åĲĲ": 6329,
      "çĶŁåĬ¨": 6330,
      "ĠCol": 6331,
      "html": 6332,
      "çĪ¸": 6333,
      "ä½ľçī©": 6334,
      "åı¯èĥ½æĺ¯": 6335,
      "åıł": 6336,
      "æľįåĬ¡çļĦ": 6337,
      "æĲ¬": 6338,
      "ification": 6339,
      "èĿ": 6340,
      "Ġsize": 6341,
      "éĺ¶çº§": 6342,
      "æĢ»æĺ¯": 6343,
      "loat": 6344,
      "Ġ30": 6345,
      "ç¡ķå£«": 6346,
      "åĽĬ": 6347,
      "Ġmar": 6348,
      "rad": 6349,
      "éĩĳé¢Ŀ": 6350,
      "çĬ¹": 6351,
      "æ»ĭ": 6352,
      "Ġcommunity": 6353,
      "çļĦåŃ¦çĶŁ": 6354,
      "æĿ¡æ¬¾": 6355,
      "æĴ°": 6356,
      "lib": 6357,
      "âĹ": 6358,
      "è¦ģæľī": 6359,
      "è¿Ľå±ķ": 6360,
      "ãĢĭãĢĬ": 6361,
      "èĩ³äºİ": 6362,
      "æ»´": 6363,
      "Ġchall": 6364,
      "å²Ń": 6365,
      "æĽ¿ä»£": 6366,
      "76": 6367,
      "å¿į": 6368,
      "è§Ĩè§ī": 6369,
      "ç¨ĭåº¦ä¸Ĭ": 6370,
      "æĭĴç»Ŀ": 6371,
      "æĸ°åħ´": 6372,
      "Ġuntil": 6373,
      "pecially": 6374,
      "éĥ¨ä½į": 6375,
      "2013": 6376,
      "å®¡åĪ¤": 6377,
      "èħ°": 6378,
      "éĵģè·¯": 6379,
      "ç´¯è®¡": 6380,
      "æ£®æŀĹ": 6381,
      "ä¼łéĢĴ": 6382,
      "ä¿®å¤į": 6383,
      "Ġauthor": 6384,
      "Ġey": 6385,
      "åħ¬è·¯": 6386,
      "åĲĦèĩª": 6387,
      "è±ª": 6388,
      "comp": 6389,
      "èĤ¡ä»½": 6390,
      "ç¼´çº³": 6391,
      "çĸ¼": 6392,
      "å®ĹæķĻ": 6393,
      "å¤§çº¦": 6394,
      "çŃĭ": 6395,
      "Ġtoday": 6396,
      "Ġcancer": 6397,
      "åŃĿ": 6398,
      "çĻ¾å¹´": 6399,
      "éĢĢä¼ĳ": 6400,
      "èµ¶": 6401,
      "æīĵå¼Ģ": 6402,
      "():": 6403,
      "ĠStates": 6404,
      "uments": 6405,
      "Ġhard": 6406,
      "éĥ½ä¸į": 6407,
      "æĹłçº¿": 6408,
      "æ»¤": 6409,
      "ç´łåħ»": 6410,
      "çĨŁæĤī": 6411,
      "åĬĽåĴĮ": 6412,
      "æ»ŀ": 6413,
      "ched": 6414,
      "å·©åĽº": 6415,
      "input": 6416,
      "åıĳåĬ¨æľº": 6417,
      "æľºçļĦ": 6418,
      "åıįå¯¹": 6419,
      "æĶ¹éĿ©å¼ĢæĶ¾": 6420,
      "çĩķ": 6421,
      "å¤§å°ı": 6422,
      "çŃĽ": 6423,
      "å¤ĸåĽ½": 6424,
      "ä¸ĸçķĮä¸Ĭ": 6425,
      "td": 6426,
      "though": 6427,
      "è®©æĪĳä»¬": 6428,
      "åĽŃåĮº": 6429,
      "Ġobser": 6430,
      "å¦Īå¦Ī": 6431,
      "Ġclear": 6432,
      "||": 6433,
      "çļĦåİŁåĪĻ": 6434,
      "Ġbro": 6435,
      "ç¾İçļĦ": 6436,
      "æŃ¥éª¤": 6437,
      "å®¡æł¸": 6438,
      "é¡ºåĪ©": 6439,
      "tal": 6440,
      "Ġpast": 6441,
      "æīĢéľĢ": 6442,
      "ç¥¥": 6443,
      "Ġteam": 6444,
      "Ġwar": 6445,
      "èµł": 6446,
      "å¾Īå¤§çļĦ": 6447,
      "èĦ¸": 6448,
      "ĠBe": 6449,
      "ĠBy": 6450,
      "Ġskills": 6451,
      "hol": 6452,
      "äººä¸º": 6453,
      "æ°ĳä¼Ĺ": 6454,
      "åŃ¦ä¹łçļĦ": 6455,
      "Ġsum": 6456,
      "Ġinput": 6457,
      "Config": 6458,
      "dom": 6459,
      "æĸĳ": 6460,
      "Ġbool": 6461,
      "åħ¬çĽĬ": 6462,
      "verage": 6463,
      "åİŁå§ĭ": 6464,
      "æ¶ĪéĻ¤": 6465,
      "åı¦ä¸Ģ": 6466,
      "ditional": 6467,
      "åĬ£": 6468,
      "åĪĨç¦»": 6469,
      "è¯¾æĸĩ": 6470,
      "Ġfree": 6471,
      "åĩºçĶŁ": 6472,
      "Ġload": 6473,
      "èĥ½åĬĽçļĦ": 6474,
      "ç§ĳæĬĢåĪĽæĸ°": 6475,
      "åĨ²åĩ»": 6476,
      "çĶŁç´ł": 6477,
      "ĠAll": 6478,
      "Ġworks": 6479,
      "Ġdiscuss": 6480,
      "instance": 6481,
      "core": 6482,
      "è®¤åı¯": 6483,
      "çļĦæĢĿæĥ³": 6484,
      "Ġos": 6485,
      "Ġmind": 6486,
      "ä½¿åĳ½": 6487,
      "å¼ķåħ¥": 6488,
      "ĠLe": 6489,
      "åŁºç¡Ģä¸Ĭ": 6490,
      "Ġdistribut": 6491,
      "Ġinflu": 6492,
      "mm": 6493,
      "è¡¨æ¼Ķ": 6494,
      "æ¡ĥ": 6495,
      "åįļçī©é¦Ĩ": 6496,
      "Ġalong": 6497,
      "è¾¾æĪĲ": 6498,
      "ĠAny": 6499,
      "å¸¸è§ģçļĦ": 6500,
      "sel": 6501,
      "åľ¨è¿Ļä¸ª": 6502,
      "å®¡æī¹": 6503,
      "åĲ«æľī": 6504,
      "Ġdescrib": 6505,
      "Ġsimilar": 6506,
      "95": 6507,
      "ç¨»": 6508,
      "çľĭæĿ¥": 6509,
      "è¡Ģæ¶²": 6510,
      "åĤ¬": 6511,
      "çĽĳçĿ£ç®¡çĲĨ": 6512,
      "01": 6513,
      "`.": 6514,
      "ae": 6515,
      "ç»ıè´¹": 6516,
      "æĸ°å¢ŀ": 6517,
      "ç§įåŃĲ": 6518,
      "inx": 6519,
      "éķ¿æ±Ł": 6520,
      "Ġdeath": 6521,
      "ä¸įå¥½": 6522,
      "è¾½": 6523,
      "aging": 6524,
      "ä¾ĿéĿł": 6525,
      "Ġtyper": 6526,
      "è¿Ī": 6527,
      "Ġways": 6528,
      "oup": 6529,
      "éĥ½èĥ½": 6530,
      "çļ®èĤ¤": 6531,
      "ert": 6532,
      "ĊĠĠĠĠĠ": 6533,
      "å®¡çĲĨ": 6534,
      "Ġeval": 6535,
      "âĢ¦âĢ¦âĢ¦âĢ¦âĢ¦âĢ¦âĢ¦âĢ¦": 6536,
      "æıĲåīį": 6537,
      "ä¸īå¤§": 6538,
      "çłĶç©¶æīĢ": 6539,
      "2010": 6540,
      "ç»Ħç»ĩçļĦ": 6541,
      "list": 6542,
      "now": 6543,
      "å¼ķè¿Ľ": 6544,
      "åĢºæĿĥ": 6545,
      "ç¬ĶèĢħ": 6546,
      "date": 6547,
      "çļĦæķĻåŃ¦": 6548,
      "ä¸ŃåŃ¦": 6549,
      "å°Ĩä¼ļ": 6550,
      "Ġimage": 6551,
      "çļĦç²¾ç¥ŀ": 6552,
      "çļĦéľĢæ±Ĥ": 6553,
      "èĢĮåľ¨": 6554,
      "å°±åĥı": 6555,
      "çĤ¸": 6556,
      "æıĲç¤º": 6557,
      "æ£ī": 6558,
      "åĮħè£ħ": 6559,
      "ä¾Ŀçħ§": 6560,
      "ä¿ĿçķĻ": 6561,
      "å®¤åĨħ": 6562,
      ")ãĢģ": 6563,
      "çļĦå½¢å¼ı": 6564,
      "ä»Ļ": 6565,
      "ured": 6566,
      "è¯ĹæŃĮ": 6567,
      "åĨħåľ¨": 6568,
      "è§£æŀĲ": 6569,
      "Ġsuper": 6570,
      "å®¡è®¡": 6571,
      "å¾®ä¿¡": 6572,
      "åįģåħŃ": 6573,
      "Ġheart": 6574,
      "åįĬå¹´": 6575,
      "èķ´": 6576,
      "Ġcharacter": 6577,
      "mon": 6578,
      "Ġput": 6579,
      "å®ŀæĹ¶": 6580,
      "çī©ä¸ļ": 6581,
      "å¯Ĩåº¦": 6582,
      "`,": 6583,
      "è¡į": 6584,
      "Ġfour": 6585,
      "æĹłäºº": 6586,
      "å·¥ä½ľäººåĳĺ": 6587,
      "osed": 6588,
      "è®©äºº": 6589,
      "æī¹è¯Ħ": 6590,
      "çĶµåĬ¨": 6591,
      "çŁ³æ²¹": 6592,
      "åĮĹäº¬å¸Ĥ": 6593,
      "æĭĸ": 6594,
      "ims": 6595,
      "éļ¾é¢ĺ": 6596,
      "oot": 6597,
      "å¤§ä¼Ĺ": 6598,
      "åĲĮæŃ¥": 6599,
      "å§Ĩ": 6600,
      "åĬ³åĬ¨åĲĪåĲĮ": 6601,
      "Ġpatients": 6602,
      "å¤įåħ´": 6603,
      "Ġclimate": 6604,
      "åĮºåĿĹéĵ¾": 6605,
      "å®¾": 6606,
      "Ġaction": 6607,
      "ening": 6608,
      "ĠTrue": 6609,
      "è¿ĺåı¯ä»¥": 6610,
      "å·¥åİĤ": 6611,
      "å¤Ħç½®": 6612,
      "ready": 6613,
      "æ®ĭçĸ¾": 6614,
      "Ġconc": 6615,
      "å¨ģèĥģ": 6616,
      "è¯ŀ": 6617,
      "Ġ11": 6618,
      "AL": 6619,
      "Ġsure": 6620,
      "å®ĥæĺ¯": 6621,
      "äº¿ç¾İåħĥ": 6622,
      "æĸĹäºī": 6623,
      "é³": 6624,
      "Ġsl": 6625,
      "Ġdam": 6626,
      "Ġdig": 6627,
      "å®ŀçĶ¨": 6628,
      "å½ĵå¹´": 6629,
      "æŁ³": 6630,
      "æ®¿": 6631,
      "æĦŁæĥħ": 6632,
      "é»İ": 6633,
      "Â°": 6634,
      "æĪĲæķĪ": 6635,
      "éĽķ": 6636,
      "ç¾İä¸½": 6637,
      "å¿ħè¦ģçļĦ": 6638,
      "Ġissues": 6639,
      "Ġmil": 6640,
      "è¾Ī": 6641,
      "Ġhigher": 6642,
      "æķ¦": 6643,
      "å¼ĺ": 6644,
      "ä¸įç®¡": 6645,
      "Ġdeg": 6646,
      "å¦Ĥæŀľä½ł": 6647,
      "æľīåħ³éĥ¨éĹ¨": 6648,
      "èĶ¬": 6649,
      "47": 6650,
      "çķľ": 6651,
      "æĽ´é«ĺ": 6652,
      "ä¹Łåı¯": 6653,
      "Ġusually": 6654,
      "çĻĮçĹĩ": 6655,
      "çļĦçĽ®çļĦ": 6656,
      "æĳĦå½±": 6657,
      "rc": 6658,
      "ä¸ºä¾ĭ": 6659,
      "leep": 6660,
      "æıĲéĨĴ": 6661,
      "è¾ĥä½İ": 6662,
      "åĨľäº§åĵģ": 6663,
      "ä»Ķ": 6664,
      "Ġsingle": 6665,
      "chie": 6666,
      "Ġconnect": 6667,
      "èģļçĦ¦": 6668,
      "Ġsomething": 6669,
      "Ġlikely": 6670,
      "tok": 6671,
      "çļĦç»ıæµİ": 6672,
      "æ³Ħ": 6673,
      "çŁ£": 6674,
      "æµģéĢļ": 6675,
      "ĠOn": 6676,
      "éĨĩ": 6677,
      "ohn": 6678,
      "åıĳæĶ¾": 6679,
      "è°ĥè§£": 6680,
      "æīįæĺ¯": 6681,
      "Ġcourse": 6682,
      "åµ": 6683,
      "ĠPre": 6684,
      "ä»ħä»ħ": 6685,
      "Ġfiles": 6686,
      "å¤§äºİ": 6687,
      "è¿Ļç±»": 6688,
      "ç¡ħ": 6689,
      "åıĺæĽ´": 6690,
      "éĺ²èĮĥ": 6691,
      "çĩ¥": 6692,
      "Ġcases": 6693,
      "å·¥ä½ľä¸Ń": 6694,
      "çģ«çģ¾": 6695,
      "Ġproduction": 6696,
      "èļĢ": 6697,
      "Ġeducation": 6698,
      "word": 6699,
      "æ±Ĺ": 6700,
      "éĤ£ä¸ª": 6701,
      "æľ¬äºº": 6702,
      "orts": 6703,
      ".\"\"\"": 6704,
      "':": 6705,
      "DE": 6706,
      "åı¯ä»¥è¯´": 6707,
      "ãĢĭãĢĤ": 6708,
      "earch": 6709,
      "é«ĺè´¨éĩıåıĳå±ķ": 6710,
      "åħ³èĬĤ": 6711,
      "ä¹Łåľ¨": 6712,
      "ç¦»å¼Ģ": 6713,
      "é¥±": 6714,
      "Ġprim": 6715,
      "Ġdifficult": 6716,
      "Model": 6717,
      "iver": 6718,
      "Ġcir": 6719,
      "åĿĩè¡¡": 6720,
      "atory": 6721,
      "item": 6722,
      "æĬ«": 6723,
      "åħ¨å¸Ĥ": 6724,
      "å¤©æ°Ķ": 6725,
      "ä¼Ĺå¤ļ": 6726,
      "Ġwords": 6727,
      "Ġ>": 6728,
      "çļĦå®īåħ¨": 6729,
      "å¹´çº§": 6730,
      "éªĮè¯ģ": 6731,
      "çĽ´åĪ°": 6732,
      "äºĭå®ŀä¸Ĭ": 6733,
      "ä¼łæĦŁåĻ¨": 6734,
      "åĲİæŀľ": 6735,
      "æİĪæĿĥ": 6736,
      "gether": 6737,
      "Cl": 6738,
      "Ġtogether": 6739,
      "etic": 6740,
      "ager": 6741,
      "ãĢĭï¼Ī": 6742,
      "åģļäºĨ": 6743,
      "Ġessential": 6744,
      "ä¸²": 6745,
      "Ġfail": 6746,
      "åħ³å¿ĥ": 6747,
      "çĤ¹çļĦ": 6748,
      "ä¹¦æ³ķ": 6749,
      "èĳĽ": 6750,
      "DA": 6751,
      "])": 6752,
      "Ġ@": 6753,
      "ä¸Ļ": 6754,
      "çļĦæł¸å¿ĥ": 6755,
      "rect": 6756,
      "rodu": 6757,
      "ä¿¡å¿ĥ": 6758,
      "çĲĨæĢ§": 6759,
      "å½ĵä¸Ń": 6760,
      "æ¶ĪèĢĹ": 6761,
      "Ġstrateg": 6762,
      "Ġrepresent": 6763,
      "çļĦçĽ®æłĩ": 6764,
      "å®ŀè´¨": 6765,
      "æĹłè®ºæĺ¯": 6766,
      "loc": 6767,
      "ä¸Ģå®¶": 6768,
      "Ġcy": 6769,
      "çĽ®å½ķ": 6770,
      "Ġmarket": 6771,
      "Al": 6772,
      "right": 6773,
      "tes": 6774,
      "ä½ľæĸĩ": 6775,
      "åľ°ä¸ĭ": 6776,
      "æ°Ķè±¡": 6777,
      "æ°¸è¿ľ": 6778,
      "gress": 6779,
      "ĠCent": 6780,
      "äºĴçĽ¸": 6781,
      "RE": 6782,
      "ites": 6783,
      "ä½ľå®¶": 6784,
      "é¢ģ": 6785,
      "æĥ³æ³ķ": 6786,
      "åĻª": 6787,
      "å¤įä¹ł": 6788,
      "åħ³ç³»çļĦ": 6789,
      "å·®è·Ŀ": 6790,
      "Ġcollect": 6791,
      "ields": 6792,
      "Ġfactors": 6793,
      "ME": 6794,
      "åıĳå°Ħ": 6795,
      "ä¸īç§į": 6796,
      "èĬ½": 6797,
      "åıįæĢĿ": 6798,
      "éĢĤçĶ¨äºİ": 6799,
      "æĭħä¿Ŀ": 6800,
      "æĿ¯": 6801,
      "åıĳçĹħ": 6802,
      "åŁĥ": 6803,
      "ç¬¬ä¸ĥ": 6804,
      "Ġask": 6805,
      "æĳ¸": 6806,
      "åľ¨çº¿": 6807,
      "Ġworking": 6808,
      "58": 6809,
      "ring": 6810,
      "ä¹ĭå¤Ħ": 6811,
      "çĶµæµģ": 6812,
      "èµ·è¯ī": 6813,
      "chema": 6814,
      "ene": 6815,
      "çĿĽ": 6816,
      "å¤įåĲĪ": 6817,
      "éĢīä¸¾": 6818,
      "Ġmaintain": 6819,
      "çļĦæ°´": 6820,
      "åıī": 6821,
      "Ġlo": 6822,
      "çº¦æĿŁ": 6823,
      "ä¿®è®¢": 6824,
      "é¸£": 6825,
      "åºĻ": 6826,
      "ĠFalse": 6827,
      "Ġargs": 6828,
      "aken": 6829,
      "å®ŀè·µä¸Ń": 6830,
      "Ġespecially": 6831,
      "åīĬ": 6832,
      "æ·Ģ": 6833,
      "output": 6834,
      "çĮľ": 6835,
      "2008": 6836,
      "Ġstrong": 6837,
      "çĶµåİĭ": 6838,
      "Ġeffects": 6839,
      "mar": 6840,
      "âĢķ": 6841,
      "index": 6842,
      "ç¦ıåĪ©": 6843,
      "Ġensure": 6844,
      "Ġwhether": 6845,
      "dantic": 6846,
      "Ġill": 6847,
      "Ġ),": 6848,
      "æĭ¨": 6849,
      "é¢ĺçĽ®": 6850,
      "æľªæĪĲ": 6851,
      "èŀįåħ¥": 6852,
      "ç¦»åŃĲ": 6853,
      "Ġgeneral": 6854,
      "SE": 6855,
      "çļĦæ³ķå¾ĭ": 6856,
      "aling": 6857,
      "odes": 6858,
      "æĿ¡è§Ħå®ļ": 6859,
      "å¸ĪèĮĥ": 6860,
      "ĠMed": 6861,
      "æĪĳä»¬åľ¨": 6862,
      "2011": 6863,
      "æĤ¦": 6864,
      "ä¸¾è¡Į": 6865,
      "Ġcommand": 6866,
      "æĺ¯åĽłä¸º": 6867,
      "å¤§åĪ©": 6868,
      "ey": 6869,
      "å¼Ħ": 6870,
      "æŀª": 6871,
      "æµģè¡Į": 6872,
      "æĤ¬": 6873,
      "åįłæ¯Ķ": 6874,
      "èĤ¢": 6875,
      ":âĢľ": 6876,
      "çļĦè®¾è®¡": 6877,
      "æĥħèĬĤ": 6878,
      "æ¹ĸåĮĹ": 6879,
      "éĶ»çĤ¼": 6880,
      "You": 6881,
      "å¹½": 6882,
      "usion": 6883,
      "ptoms": 6884,
      "Ġlittle": 6885,
      "çļĦé£İéĻ©": 6886,
      "ä¸ĢåĲį": 6887,
      "è¡Ķ": 6888,
      "Ġeither": 6889,
      "æľŁçļĦ": 6890,
      "ä¾ĭåŃĲ": 6891,
      "Ġgrowth": 6892,
      "å·¥åķĨ": 6893,
      "éĵĿ": 6894,
      "ï¼Ľï¼Ī": 6895,
      "èĳ¡": 6896,
      "process": 6897,
      "Ġç¬¬äºĮ": 6898,
      "ä¸»å¯¼": 6899,
      "èħ¿": 6900,
      "79": 6901,
      "cr": 6902,
      "ï¿": 6903,
      "Ġdog": 6904,
      "åĲĪéĢĤ": 6905,
      "ç®ĢåįķçļĦ": 6906,
      "åīįçļĦ": 6907,
      "èĤ¡æĿĥ": 6908,
      "æĲº": 6909,
      "çļĦçĽ¸åħ³": 6910,
      "äºŃ": 6911,
      "è¿ª": 6912,
      "Ġfast": 6913,
      "Ġmakes": 6914,
      "è¢Ń": 6915,
      "çłĶç©¶çĶŁ": 6916,
      "è§Ĩä¸º": 6917,
      "æĻ®åıĬ": 6918,
      "éĽ¶åĶ®": 6919,
      "ç¡¬ä»¶": 6920,
      "å¦ĩå¥³": 6921,
      "ä¸ļä¸»": 6922,
      "çĽ¸ä¼¼": 6923,
      "Ġ100": 6924,
      "æľįåĬ¡åĻ¨": 6925,
      "éļ¾åº¦": 6926,
      "Ġpolit": 6927,
      "ĊĠĠ": 6928,
      "itle": 6929,
      "æ³ķå®ĺ": 6930,
      "æľºéģĩ": 6931,
      "acks": 6932,
      "å·²æľī": 6933,
      "izing": 6934,
      "Ġarch": 6935,
      "Ġavoid": 6936,
      "ä¿Ħç½Ĺæĸ¯": 6937,
      "æĸ°æĬĢæľ¯": 6938,
      "æ³¢åĬ¨": 6939,
      "ä¾ĽåºĶéĵ¾": 6940,
      "åĽ¾ä¹¦é¦Ĩ": 6941,
      "çĻ¾åĪĨçĤ¹": 6942,
      "inary": 6943,
      "å¼¯": 6944,
      "aring": 6945,
      "æĥĳ": 6946,
      "Ġlater": 6947,
      "ĠWith": 6948,
      "éĿĴå°ĳå¹´": 6949,
      "æĿ¡ä»¶çļĦ": 6950,
      "new": 6951,
      "äººåĬĽèµĦæºĲ": 6952,
      "Ġpressure": 6953,
      "Ġtre": 6954,
      "åĲ¹": 6955,
      "Ġsens": 6956,
      "åħļä¸Ńå¤®": 6957,
      "å±Ģéĥ¨": 6958,
      "43": 6959,
      "åħ±æľī": 6960,
      "ĠGo": 6961,
      "æĺ¾çĦ¶": 6962,
      "ruction": 6963,
      "æī¿è®¤": 6964,
      "Ġcomplex": 6965,
      "æ³ķäºº": 6966,
      "Ġgive": 6967,
      "åįıåķĨ": 6968,
      "Ġcentury": 6969,
      "chain": 6970,
      "æĪĳä»¬åı¯ä»¥": 6971,
      "å¥ĸåĬ±": 6972,
      "Ġï¼Ī": 6973,
      "ales": 6974,
      "åħ³èģĶ": 6975,
      "éĥ¨éĺŁ": 6976,
      "æįŁä¼¤": 6977,
      "pu": 6978,
      "ising": 6979,
      "oud": 6980,
      "èĤ©": 6981,
      "çłĤ": 6982,
      "éĥ½åı¯ä»¥": 6983,
      "plit": 6984,
      "å¿«ä¹Ĳ": 6985,
      "éĢłæĪĲçļĦ": 6986,
      "SS": 6987,
      "su": 6988,
      "Ġdom": 6989,
      "rap": 6990,
      "ä¸ĵé¢ĺ": 6991,
      "ĠWorld": 6992,
      "ä¹¡éķĩ": 6993,
      "ç´§å¯Ĩ": 6994,
      "Ġindividuals": 6995,
      "åĪ¶åĵģ": 6996,
      "amin": 6997,
      "Ġstructure": 6998,
      "å¼ıçļĦ": 6999,
      "è¾ħåĬ©": 7000,
      "pose": 7001,
      "æĢª": 7002,
      "æİ¨åĩº": 7003,
      "Ġknowledge": 7004,
      "Ġoptim": 7005,
      "æĮĸæİĺ": 7006,
      "çĥ¦": 7007,
      "åĽŀåĪ°": 7008,
      "Ġsun": 7009,
      "ä¾Ŀæīĺ": 7010,
      "fficient": 7011,
      "68": 7012,
      "å¤§éĻĨ": 7013,
      "æĺİçļĦ": 7014,
      "ä¸Ģä¸ªäºº": 7015,
      "æ·ĭ": 7016,
      "å¼¥": 7017,
      "åħ¨ä½ĵ": 7018,
      "è¿ĺä¼ļ": 7019,
      "CH": 7020,
      "çī©èģĶç½ĳ": 7021,
      "2012": 7022,
      "èĲ¥éĢł": 7023,
      "è¯ĪéªĹ": 7024,
      "]:": 7025,
      "sequ": 7026,
      "Ġglobal": 7027,
      "è§£è¯»": 7028,
      "æ¯ıæ¬¡": 7029,
      "Ġpattern": 7030,
      "Ġproducts": 7031,
      "cul": 7032,
      "çľŁçļĦ": 7033,
      "ä»Ģä¹Īæĺ¯": 7034,
      "bon": 7035,
      "ux": 7036,
      "çĽ²": 7037,
      "å¤§èĦĳ": 7038,
      "ctions": 7039,
      "æĽ´å¥½çļĦ": 7040,
      "ç¼ĵè§£": 7041,
      "Ġapproach": 7042,
      "æīĢå¾Ĺç¨İ": 7043,
      "ref": 7044,
      "reg": 7045,
      "ä¿±": 7046,
      "ä¸ªçĻ¾åĪĨçĤ¹": 7047,
      "èĩªæ²»åĮº": 7048,
      "çī©åĵģ": 7049,
      "Ġexcept": 7050,
      "çªģçĦ¶": 7051,
      "å½»åºķ": 7052,
      "Ġestab": 7053,
      "å¾Ĺä»¥": 7054,
      "aves": 7055,
      "åį°åĪ·": 7056,
      "åĢ¾åĲĳ": 7057,
      "èĳ£äºĭ": 7058,
      "AM": 7059,
      "PE": 7060,
      "ç®Ń": 7061,
      "èµ·åĪ°": 7062,
      "æĪĺæĸĹ": 7063,
      "There": 7064,
      "ä¹°åįĸ": 7065,
      "è¡Ĺéģĵ": 7066,
      "ctor": 7067,
      "ä¸ŃåĽ½äººæ°ĳ": 7068,
      "è½¬åĲĳ": 7069,
      "å¾ħéģĩ": 7070,
      "wards": 7071,
      "ï¿½": 7072,
      "ä¸ºæŃ¤": 7073,
      "åıĳåĩº": 7074,
      "å°±ä¸į": 7075,
      "thing": 7076,
      "æ´»åĬ¨ä¸Ń": 7077,
      "ĠOr": 7078,
      "aug": 7079,
      "Ġaccount": 7080,
      "æĶ»åĩ»": 7081,
      "éģĵçĲĨ": 7082,
      "ĠGod": 7083,
      "ç´§å¼ł": 7084,
      "æľīåĵªäºĽ": 7085,
      "respon": 7086,
      "åħ»æ®ĸ": 7087,
      "æµ·å¤ĸ": 7088,
      "è¡Įä¸ºçļĦ": 7089,
      "Ġdiet": 7090,
      "åĲ¾": 7091,
      "Ġsent": 7092,
      "äººæĸĩ": 7093,
      "æŀ¢": 7094,
      "æĸ°çĸĨ": 7095,
      "Ġbegin": 7096,
      "éħ¶": 7097,
      "åıįé¦Ī": 7098,
      "åħļå§Ķ": 7099,
      "çĭĤ": 7100,
      "oney": 7101,
      "è¡Ģåİĭ": 7102,
      "âĳ£": 7103,
      "Ġrights": 7104,
      "www": 7105,
      "ĠGerm": 7106,
      "ä¸ĸçķĮçļĦ": 7107,
      "éĻĦè¿ĳ": 7108,
      "ä¸Ģé¡¹": 7109,
      "Ġpub": 7110,
      "Ġvalid": 7111,
      "encies": 7112,
      "èĬ¯çīĩ": 7113,
      "OT": 7114,
      "æīĭç»Ń": 7115,
      "ĠEar": 7116,
      "çĵľ": 7117,
      "Ġcountries": 7118,
      "æľªæĿ¥çļĦ": 7119,
      "åı¦ä¸Ģä¸ª": 7120,
      "Ġrad": 7121,
      "æ°ĽåĽ´": 7122,
      "side": 7123,
      "åħĦ": 7124,
      "ä¸ºåŁºç¡Ģ": 7125,
      "åĵªéĩĮ": 7126,
      "å¹»": 7127,
      "ane": 7128,
      "ä¸ĬäºĨ": 7129,
      "èĤª": 7130,
      "ä¹ĭæīĢä»¥": 7131,
      "æĦŁçŁ¥": 7132,
      "66": 7133,
      "åħ¬åĬ¡": 7134,
      "éĤĢ": 7135,
      "çķĻä¸ĭ": 7136,
      "æ¬¢è¿İ": 7137,
      "Ġresearc": 7138,
      "è¸ı": 7139,
      "Ġactivities": 7140,
      "bt": 7141,
      "çļĦä¸ľè¥¿": 7142,
      "Ġansw": 7143,
      "æķ°çļĦ": 7144,
      "Ġalready": 7145,
      "Ġwhy": 7146,
      "valid": 7147,
      "41": 7148,
      "äºı": 7149,
      "åįģä¸Ģ": 7150,
      "æīĵåĩ»": 7151,
      "è´¢å¯Į": 7152,
      "èĦĤèĤª": 7153,
      "ãĢı": 7154,
      "ison": 7155,
      "ç§Ĵ": 7156,
      "Ġbook": 7157,
      "æĪĸæĺ¯": 7158,
      "æ¶ĪåĮĸ": 7159,
      "Ġimplement": 7160,
      "å±ŀæĢ§": 7161,
      "Ġvalues": 7162,
      "net": 7163,
      "çļĦä½¿çĶ¨": 7164,
      "Ġteac": 7165,
      "rite": 7166,
      "ä»£è¡¨å¤§ä¼ļ": 7167,
      "çļĦçİ¯å¢ĥ": 7168,
      "Ġquality": 7169,
      "Ġunderstanding": 7170,
      "\"),": 7171,
      "ipp": 7172,
      "atal": 7173,
      "æĸ¹ä½į": 7174,
      "æĿĥå¨ģ": 7175,
      "Ġnever": 7176,
      "åĩıè½»": 7177,
      "å°ļæľª": 7178,
      "Ġreduce": 7179,
      "ãĢİ": 7180,
      "æ´»åĬĽ": 7181,
      "æĬĵä½ı": 7182,
      "code": 7183,
      "df": 7184,
      "hel": 7185,
      "å¤§æ°Ķ": 7186,
      "eline": 7187,
      "åŀĦ": 7188,
      "åİŁæĿ¥": 7189,
      "åħīä¼ı": 7190,
      "åĬŁçİĩ": 7191,
      "äºĶå¹´": 7192,
      "èĳĹåĲį": 7193,
      "èĪªå¤©": 7194,
      "77": 7195,
      "å¾Īå¿«": 7196,
      "æİĴéĻ¤": 7197,
      "é¡ºåºı": 7198,
      "æī£éĻ¤": 7199,
      "çļĦçŁ¥è¯Ĩ": 7200,
      "æħĪ": 7201,
      "è¡¥åĬ©": 7202,
      "Ġquestions": 7203,
      "PS": 7204,
      "æĸ¼": 7205,
      "åľ°éĿ¢": 7206,
      "æľ¬æ¬¡": 7207,
      "æľĢæĹ©": 7208,
      "ours": 7209,
      "åĭĥ": 7210,
      "Un": 7211,
      "lin": 7212,
      "anced": 7213,
      "æĹ¶åĪ»": 7214,
      "Ġpay": 7215,
      "ä¹Łæ²¡æľī": 7216,
      "æĶ¾å¼ĥ": 7217,
      "æķĳåĬ©": 7218,
      "æŀ¶æŀĦ": 7219,
      "AB": 7220,
      "ä½¿åħ¶": 7221,
      "æĥħå¢ĥ": 7222,
      "ä¸¤å¹´": 7223,
      "check": 7224,
      "Ġachie": 7225,
      "å°±æľī": 7226,
      "å¾ĹåĪ°äºĨ": 7227,
      "Ġindic": 7228,
      "Ġsimple": 7229,
      "éĦ": 7230,
      "çİĦ": 7231,
      "ĠSo": 7232,
      "å¸¸è§Ħ": 7233,
      "Ġbelow": 7234,
      "è©©": 7235,
      "åĲįä¸º": 7236,
      "åĮ»ä¿Ŀ": 7237,
      "æ¶Īå¤±": 7238,
      "play": 7239,
      "çľ¼çĿĽ": 7240,
      "çĿ¡çľł": 7241,
      "bit": 7242,
      "èµ«": 7243,
      "ä¸ļç»©": 7244,
      "æĹ¶éĹ´çļĦ": 7245,
      "Ġ{\"": 7246,
      "åĲĪçĲĨçļĦ": 7247,
      "æľīåºı": 7248,
      "Ġfrequ": 7249,
      "æ³Į": 7250,
      "Ġmax": 7251,
      "èĲĦ": 7252,
      "Ġsoft": 7253,
      "Res": 7254,
      "Ġmanagement": 7255,
      "æļ´åĬĽ": 7256,
      "When": 7257,
      "Ġinc": 7258,
      "è¢«ç§°ä¸º": 7259,
      "å»¶ä¼¸": 7260,
      "Ġaccording": 7261,
      "Ġwriting": 7262,
      "èĳ¡èĲĦ": 7263,
      "ken": 7264,
      "çļĦäº§åĵģ": 7265,
      "æľĢä¸º": 7266,
      "èĬĤå¥ı": 7267,
      "Ġrate": 7268,
      "å¢ŀåĬłäºĨ": 7269,
      "Ġsubject": 7270,
      "Ġquestion": 7271,
      "ises": 7272,
      "ä¹ĭä¸ĭ": 7273,
      "Ġprote": 7274,
      "æ½ľåľ¨": 7275,
      "çŃīéĹ®é¢ĺ": 7276,
      "Ġleast": 7277,
      "Ġrelations": 7278,
      "åĲĮæ¯Ķå¢ŀéķ¿": 7279,
      "way": 7280,
      "items": 7281,
      "Ġpaper": 7282,
      "ä¹Łèĥ½": 7283,
      "ĠCan": 7284,
      "çļĦåħ·ä½ĵ": 7285,
      "çļĦæ¦Ĥå¿µ": 7286,
      "åĩ¯": 7287,
      "éĹ¹": 7288,
      "éĥİ": 7289,
      "Ġneg": 7290,
      "ç»ĨèĬĤ": 7291,
      "å¯Ĩçłģ": 7292,
      "æİ¢ç©¶": 7293,
      "II": 7294,
      "æľīåĬĽ": 7295,
      "ä»¥ä¾¿": 7296,
      "éģĤ": 7297,
      "Ġconcept": 7298,
      "å¤©æ´¥": 7299,
      "è¿ĳæĹ¥": 7300,
      "Ġabs": 7301,
      "Ġprovides": 7302,
      "fric": 7303,
      "Ġhaving": 7304,
      "ĠNational": 7305,
      "Ġresources": 7306,
      "äººåĳĺçļĦ": 7307,
      "ä¸¾æİª": 7308,
      "Ġanalysis": 7309,
      "ameters": 7310,
      "IM": 7311,
      "çħĮ": 7312,
      "é»Ħéĩĳ": 7313,
      "Ġmethods": 7314,
      "ä¸įåıĺ": 7315,
      "Ġoption": 7316,
      "Ġbig": 7317,
      "å¤§è§Ħæ¨¡": 7318,
      "Ġred": 7319,
      "å±ķçİ°": 7320,
      "æŃ¤æ¬¡": 7321,
      "ĠPar": 7322,
      "ç½ĳä¸Ĭ": 7323,
      "çłĶç©¶çļĦ": 7324,
      "æĪªèĩ³": 7325,
      "gent": 7326,
      "å¤§å¤ļ": 7327,
      "Ġdays": 7328,
      "å¥ł": 7329,
      "è®²è§£": 7330,
      "52": 7331,
      "based": 7332,
      "no": 7333,
      "Ġside": 7334,
      "Ġfurther": 7335,
      "çĶŁçĲĨ": 7336,
      "æĸĩèīº": 7337,
      "Ġgl": 7338,
      "çĽ¸åıį": 7339,
      "Ġstress": 7340,
      "å¹³å¹³": 7341,
      "è®¤åĲĮ": 7342,
      "å·ŀå¸Ĥ": 7343,
      "éŃĤ": 7344,
      "åŃµ": 7345,
      "ä¸įä½Ĩ": 7346,
      "æĹłæķĪ": 7347,
      "æ·®": 7348,
      "andom": 7349,
      "æī¿åĮħ": 7350,
      "eb": 7351,
      "æĺĨ": 7352,
      "æĹ±": 7353,
      "åįģä¸ĥ": 7354,
      "èĦ¾": 7355,
      "æ¬§çĽŁ": 7356,
      "å¢ŀåĢ¼ç¨İ": 7357,
      "éĤ£æł·": 7358,
      "æĶ»åĿļ": 7359,
      "äººåĴĮ": 7360,
      "èĥ½åĲ¦": 7361,
      "æ¬º": 7362,
      "ĠAss": 7363,
      "Ġexerc": 7364,
      "å¢ĥåĨħ": 7365,
      "md": 7366,
      "å¯¹è¯Ŀ": 7367,
      "éĶ¡": 7368,
      "%;": 7369,
      "GDP": 7370,
      "çłĸ": 7371,
      "èĢĥåı¤": 7372,
      "ogle": 7373,
      "Ġhttp": 7374,
      "selves": 7375,
      "çļĦåºĶçĶ¨": 7376,
      "çĽĹ": 7377,
      "åı¯æĺ¯": 7378,
      "ĠSome": 7379,
      "Ġprob": 7380,
      "Ġchem": 7381,
      "Ġlower": 7382,
      "è¢ģ": 7383,
      "å¸ĪçĶŁ": 7384,
      "è¿Ĳä½ľ": 7385,
      "ivity": 7386,
      "çºªå¿µ": 7387,
      "è§£åĨ³æĸ¹æ¡Ī": 7388,
      "æī©å¼ł": 7389,
      "stream": 7390,
      "hern": 7391,
      "å¤įåĪ¶": 7392,
      "æŁ¥è¯¢": 7393,
      "æ²³åĮĹ": 7394,
      "åıĸå¾ĹäºĨ": 7395,
      "Ġinteract": 7396,
      "éĻķè¥¿": 7397,
      "æĪĲçļĦ": 7398,
      "ä¹¦åĨĻ": 7399,
      "è·¯çº¿": 7400,
      "ä¼ĺæĥł": 7401,
      "å²³": 7402,
      "åĲĮåŃ¦ä»¬": 7403,
      "çļĦæĸĩåĮĸ": 7404,
      "ä¸Ģçº§": 7405,
      "å®ŀåĬĽ": 7406,
      "æĪĸè®¸": 7407,
      "åİŁåĳĬ": 7408,
      "Ġkind": 7409,
      "åıĳçĶŁçļĦ": 7410,
      "aching": 7411,
      "Ġpredict": 7412,
      "Ġactivity": 7413,
      "Ġassociated": 7414,
      "down": 7415,
      "éģ¥": 7416,
      "åĨħåŃĺ": 7417,
      "æ´»æĢ§": 7418,
      "........": 7419,
      "ociety": 7420,
      "Ġmass": 7421,
      "æĭ³": 7422,
      "Ġnut": 7423,
      "Ġexc": 7424,
      "åįķä¸Ģ": 7425,
      "ä¸´æĹ¶": 7426,
      "Ġsymptoms": 7427,
      "json": 7428,
      "with": 7429,
      "Ġbir": 7430,
      "æ¡Į": 7431,
      "åİŁæĸĻ": 7432,
      "ç¾İå¥½": 7433,
      "ä¸ĩåĲ¨": 7434,
      "batch": 7435,
      "ä¸įåĬ¨": 7436,
      "è¿ĩåº¦": 7437,
      "çĪ²": 7438,
      "Ġaddress": 7439,
      "Ġbuilding": 7440,
      "ĠåĴĮ": 7441,
      "ï¼ĳ": 7442,
      "äº§ä¸ļåıĳå±ķ": 7443,
      "æĿ¡ä»¶ä¸ĭ": 7444,
      "Ġarticle": 7445,
      "ä¹Łå°±æĺ¯è¯´": 7446,
      "Ġmusic": 7447,
      "CC": 7448,
      "iol": 7449,
      "æĥľ": 7450,
      "äººæ°ĳç¾¤ä¼Ĺ": 7451,
      "åįıä½ľ": 7452,
      "å©´": 7453,
      "ç«ŀäºīåĬĽ": 7454,
      "Ġfar": 7455,
      "ä»¥æŃ¤": 7456,
      "çĸ²": 7457,
      "çľŁæŃ£çļĦ": 7458,
      "Ġcreated": 7459,
      "å¾Īå¥½": 7460,
      "dataset": 7461,
      "å¤¹": 7462,
      "åĩ¤": 7463,
      "çĶ¨åľ°": 7464,
      "å¥Ķ": 7465,
      "çīĪæľ¬": 7466,
      "Ġhowever": 7467,
      "é£Łåĵģå®īåħ¨": 7468,
      "Ġpopulation": 7469,
      "è¹Ī": 7470,
      "æľ´": 7471,
      "åħ¬åĽŃ": 7472,
      "Ġstory": 7473,
      "Ġparticip": 7474,
      "åŀĦæĸŃ": 7475,
      "ystem": 7476,
      "çļĦä¸ŃåĽ½": 7477,
      "state": 7478,
      "ä»İä¸ļ": 7479,
      "åĽŀå½Ĵ": 7480,
      "èĥ½åĬĽåĴĮ": 7481,
      "å¨±": 7482,
      "Ġrequest": 7483,
      "ä¸Ģä½ĵåĮĸ": 7484,
      "å®ªæ³ķ": 7485,
      "Ġtotal": 7486,
      "ä¹Łè®¸": 7487,
      "åĪĽæĦı": 7488,
      "sert": 7489,
      "èĪªç©º": 7490,
      "é¬": 7491,
      "Ġleft": 7492,
      "å·¥ç¨ĭå¸Ī": 7493,
      "æķıæĦŁ": 7494,
      "Ġmillion": 7495,
      "æĢ»é¢Ŀ": 7496,
      "\"\"\"": 7497,
      "éªĳ": 7498,
      "resh": 7499,
      "éĩĮéĿ¢": 7500,
      "åįıåĬ©": 7501,
      "ounds": 7502,
      "Wh": 7503,
      "æĺ¯ä¸ª": 7504,
      "è´ª": 7505,
      "åŃ¦åİĨ": 7506,
      "æ¶Į": 7507,
      "è£ķ": 7508,
      "å¸¦é¢Ĩ": 7509,
      "Ġseen": 7510,
      "ä½ĵçİ°äºĨ": 7511,
      "ä¸įåºĶ": 7512,
      "çĤ®": 7513,
      "è¥¿éĥ¨": 7514,
      "æıĲé«ĺäºĨ": 7515,
      "åĪ¶åº¦çļĦ": 7516,
      "çºªå¾ĭ": 7517,
      "æ¦Ĥæĭ¬": 7518,
      "Ġä»İ": 7519,
      "çļĦå¸Ĥåľº": 7520,
      "ags": 7521,
      "Ġword": 7522,
      "åĨ¯": 7523,
      "alf": 7524,
      "Ġmach": 7525,
      "è¿Ļä¹Łæĺ¯": 7526,
      "æĸ¹çļĦ": 7527,
      "å®¶æĹı": 7528,
      "åīįæĻ¯": 7529,
      "çħ§çīĩ": 7530,
      "çĥŃæĥħ": 7531,
      "å¾Īå¤ļäºº": 7532,
      "Ġmat": 7533,
      "æĮ¤": 7534,
      "èĲ½åľ°": 7535,
      "Ġstudies": 7536,
      "Ġmo": 7537,
      "most": 7538,
      "aries": 7539,
      "çŃīäºİ": 7540,
      "åł¡": 7541,
      "ç§»æ°ĳ": 7542,
      "è¯¸å¤ļ": 7543,
      "çļĦä¸Ń": 7544,
      "çļĦå¥½": 7545,
      "ä¸įçĶ¨": 7546,
      "èµ´": 7547,
      "åŁĭ": 7548,
      "æĹłçĸĳ": 7549,
      "æĢ»éĩı": 7550,
      "åĿļåĨ³": 7551,
      "åĬŀäºĭ": 7552,
      "èĭ±éĽĦ": 7553,
      "ç¼ºéĻ·": 7554,
      "ä¸¥éĩįçļĦ": 7555,
      "çĩĥæĸĻ": 7556,
      "Ġcity": 7557,
      "éĹª": 7558,
      "æĿĤå¿Ĺ": 7559,
      "Ġbatch": 7560,
      "æº¯": 7561,
      "è¶ħè¶Ĭ": 7562,
      "åİĨåı²ä¸Ĭ": 7563,
      "like": 7564,
      "Ġperformance": 7565,
      "400": 7566,
      "67": 7567,
      "ç¾½": 7568,
      "Ġenough": 7569,
      "Ġexperim": 7570,
      "Ġfri": 7571,
      "æµ¸": 7572,
      "åĪĨæķ£": 7573,
      "Ġthought": 7574,
      "ä»ĸåľ¨": 7575,
      "ĠAPI": 7576,
      "ä»¶äºĭ": 7577,
      "èİ²": 7578,
      "ä¼Ļä¼´": 7579,
      "nces": 7580,
      "çļĦåĬŁèĥ½": 7581,
      "lev": 7582,
      "Ġlot": 7583,
      "æĹ¥æĬ¥": 7584,
      "ä¼ĺçĤ¹": 7585,
      "éļ¾çĤ¹": 7586,
      "ĠChrist": 7587,
      "http": 7588,
      "èĤĮèĤī": 7589,
      "Ġaway": 7590,
      "Ġstep": 7591,
      "ĠIntern": 7592,
      "åħ±åĲĮä½ĵ": 7593,
      "åĢŁåĬ©": 7594,
      "äººæīįåŁ¹åħ»": 7595,
      "bash": 7596,
      "çļĦçİ°è±¡": 7597,
      "çĶµåķĨ": 7598,
      "æ°´åĪ©": 7599,
      "æłĩè®°": 7600,
      "æİ¨è¡Į": 7601,
      "__(": 7602,
      "Ġparser": 7603,
      "Ġnecessary": 7604,
      "ym": 7605,
      "é«ĺæ¸©": 7606,
      "åĮºåĪĨ": 7607,
      "ained": 7608,
      "ending": 7609,
      "æ»¡æĦı": 7610,
      "Ġjob": 7611,
      "èĩªèº«çļĦ": 7612,
      "rs": 7613,
      "Ġ%": 7614,
      "ĠãĢģ": 7615,
      "ç¤¾äº¤": 7616,
      "Ġevent": 7617,
      "å®£å¸ĥ": 7618,
      "èģĶåĲĪåĽ½": 7619,
      "Ġclean": 7620,
      "Ġpractice": 7621,
      "åĲĪå¹¶": 7622,
      "amb": 7623,
      "åĬłå¯Ĩ": 7624,
      "ĠNe": 7625,
      "é¢ĩ": 7626,
      "Ġtests": 7627,
      "æľĢé«ĺäººæ°ĳæ³ķéĻ¢": 7628,
      "å°ºå¯¸": 7629,
      "å¤©çļĦ": 7630,
      "éĩĩè®¿": 7631,
      "Ġweight": 7632,
      "åº·å¤į": 7633,
      "æĢ§æł¼": 7634,
      "çĭĹ": 7635,
      "å¿Į": 7636,
      "ä¼ļä¸Ĭ": 7637,
      "å·¥äºº": 7638,
      "ĠSer": 7639,
      "èģĶçĽŁ": 7640,
      "èĥľåĪ©": 7641,
      "è½¨éģĵ": 7642,
      "å¯¨": 7643,
      "æīĳ": 7644,
      "è¦ģåľ¨": 7645,
      "Ġnature": 7646,
      "èĬ³": 7647,
      "æī¿è¯º": 7648,
      "Ġhealthy": 7649,
      "Ġconcern": 7650,
      "lor": 7651,
      "åĮĢ": 7652,
      "å¯¹å¾ħ": 7653,
      "å¿ĥèĦı": 7654,
      "åıĹçĽĬ": 7655,
      "æ¬£èµı": 7656,
      "Ad": 7657,
      "ores": 7658,
      "ä¸įåľ¨": 7659,
      "è°ĥæİ§": 7660,
      "åıĸæ¶Ī": 7661,
      "åı¯èĥ½æĢ§": 7662,
      "Ġeffective": 7663,
      "å¯¿åĳ½": 7664,
      "åħ¬æŃ£": 7665,
      "è¯Ħè®º": 7666,
      "Ġrelated": 7667,
      "ä¾µå®³": 7668,
      "Ġbehavior": 7669,
      "tic": 7670,
      "Ġ...": 7671,
      "å¤§åľ°": 7672,
      "è¿Ļä¸¤": 7673,
      "æľºåĬ¨": 7674,
      "éĽĩ": 7675,
      "ĠMan": 7676,
      "èµĦæºĲçļĦ": 7677,
      "ä¼łç»ŁæĸĩåĮĸ": 7678,
      "ĠCont": 7679,
      "æµĵåº¦": 7680,
      "Ġconsidered": 7681,
      "sych": 7682,
      "eter": 7683,
      "ung": 7684,
      "æ¡Ĥ": 7685,
      "ä¸ŃåĽ½åħ±äº§åħļ": 7686,
      "ĠPython": 7687,
      "Ġstring": 7688,
      "Ġopportun": 7689,
      "å¹´åºķ": 7690,
      "Ġlink": 7691,
      "Ġexec": 7692,
      "èģĶåĤ¨": 7693,
      "é£ŁçĶ¨": 7694,
      "Ġcontext": 7695,
      "ç½ļæ¬¾": 7696,
      "Ġmedical": 7697,
      "æĨ": 7698,
      "æīŃ": 7699,
      "æİ¥æĶ¶": 7700,
      "çº§åĪ«": 7701,
      "å¾®çĶŁçī©": 7702,
      "éĤĵ": 7703,
      "äºĭä¸ļåįķä½į": 7704,
      "ĠHealth": 7705,
      "Ġposition": 7706,
      "ele": 7707,
      "Ġä¸Ń": 7708,
      "Ġ50": 7709,
      "çļĦè§Ĵåº¦": 7710,
      "Ġmicro": 7711,
      "æµĩ": 7712,
      "Ġreason": 7713,
      "éģ£": 7714,
      "print": 7715,
      "iter": 7716,
      "Ġ13": 7717,
      "æłĩåĩĨçļĦ": 7718,
      ".)": 7719,
      "Ġç¬¬ä¸ī": 7720,
      "äººæł¼": 7721,
      "Ġpage": 7722,
      "ĠAfric": 7723,
      "æıĲä¾ĽçļĦ": 7724,
      "æĭįåįĸ": 7725,
      "ĠĠãĢĢ": 7726,
      "ç¬¬åħ«": 7727,
      "ç»ıæµİå¢ŀéķ¿": 7728,
      "ĠBrit": 7729,
      "ension": 7730,
      "Ġnational": 7731,
      "éĢļè®¯": 7732,
      "å°Ĩåľ¨": 7733,
      "Ġexpos": 7734,
      "è¥¿åĮĹ": 7735,
      "åĲ«ä¹ī": 7736,
      "è¡¨çİ°ä¸º": 7737,
      "Ġemploy": 7738,
      "ope": 7739,
      "ä¸įçŁ¥éģĵ": 7740,
      "Ġcondition": 7741,
      "oph": 7742,
      "éĺ²æĬ¤": 7743,
      "åĳ¨è¾¹": 7744,
      "ä¾ĽåºĶåķĨ": 7745,
      "pri": 7746,
      "adata": 7747,
      "ĠDo": 7748,
      "ĠRep": 7749,
      "æİĴåĲį": 7750,
      "åıĳçĶŁäºĨ": 7751,
      "äº§çĶŁäºĨ": 7752,
      "ç¬¦åı·": 7753,
      "å³¡": 7754,
      "utions": 7755,
      "ä¹¦éĿ¢": 7756,
      "èĻ¾": 7757,
      "plic": 7758,
      "å½¢æĪĲçļĦ": 7759,
      "05": 7760,
      "nal": 7761,
      "åĪĴåĪĨ": 7762,
      "æ¼Ĥ": 7763,
      "éľį": 7764,
      "ĠPath": 7765,
      "å¾Īå®¹æĺĵ": 7766,
      "çľĭåĩº": 7767,
      "æ¢³": 7768,
      "Ġexperi": 7769,
      "åĬŀåħ¬å®¤": 7770,
      "èĶ¬èıľ": 7771,
      "æĹº": 7772,
      "Ġdone": 7773,
      "ä¸ĬéĿ¢": 7774,
      "Ġalign": 7775,
      "Ġsuggest": 7776,
      "LO": 7777,
      "ä¸įäºĨ": 7778,
      "å¾Īå°ĳ": 7779,
      "ç»´çĶŁç´ł": 7780,
      "ä¿¡æģ¯çļĦ": 7781,
      "æ¼ł": 7782,
      "nd": 7783,
      "çļĦåĽ½å®¶": 7784,
      "ä¸įå¼Ģ": 7785,
      "æıĲåĪ°": 7786,
      "ä¸»è¦ģæľī": 7787,
      "Ġskin": 7788,
      "indows": 7789,
      "åĪł": 7790,
      "åľ°çĤ¹": 7791,
      "æŁ´": 7792,
      "åįĹåĮĹ": 7793,
      "è¿Ļä¸ĢçĤ¹": 7794,
      "å»¶éķ¿": 7795,
      "Ġsurface": 7796,
      "error": 7797,
      "åĩ¸": 7798,
      "åĲįåŃĹ": 7799,
      "Ġcommit": 7800,
      "äººåĿĩ": 7801,
      "Ġnp": 7802,
      "user": 7803,
      "æŀĦéĢł": 7804,
      "2009": 7805,
      "ç¼ĸåĨĻ": 7806,
      "åħįè´¹": 7807,
      "çĪ±åĽ½": 7808,
      "åĽ½åĨħå¤ĸ": 7809,
      "æĺ¯ä»İ": 7810,
      "start": 7811,
      "åīĸ": 7812,
      "æ°ĳæ³ķ": 7813,
      "è¿ĺèĥ½": 7814,
      "æºĲäºİ": 7815,
      "åıĹçĲĨ": 7816,
      "åĳ½ä»¤": 7817,
      "é¡¹çĽ®çļĦ": 7818,
      "æ··åĩĿ": 7819,
      "çĽ¸å½ĵäºİ": 7820,
      "çĪĨåıĳ": 7821,
      "çĶ«": 7822,
      "orks": 7823,
      "æľīæķĪåľ°": 7824,
      "medi": 7825,
      "eds": 7826,
      "å±ĢéĿ¢": 7827,
      "åĸĦäºİ": 7828,
      "Ġpersonal": 7829,
      "ä»¥å¾Ģ": 7830,
      "å¹³æĹ¶": 7831,
      "ç®Ģä»ĭ": 7832,
      "Ġrecogn": 7833,
      "Ġdeveloped": 7834,
      "57": 7835,
      "tings": 7836,
      "èĬĤçº¦": 7837,
      "Ġsust": 7838,
      "èĢģå¹´äºº": 7839,
      "åĬŀåŃ¦": 7840,
      "ç»Īç«¯": 7841,
      "è¾¹ç¼ĺ": 7842,
      "ney": 7843,
      "default": 7844,
      "çļĦå¤ĸ": 7845,
      "åĴĮæľįåĬ¡": 7846,
      "Ġrecomm": 7847,
      "Ġstates": 7848,
      "Ġcomes": 7849,
      "ĠLicense": 7850,
      "å»ºç«ĭäºĨ": 7851,
      "ç«Ļåľ¨": 7852,
      "æŃ¦æ±ī": 7853,
      "çĸ¼çĹĽ": 7854,
      "max": 7855,
      "è¦ģæ³¨æĦı": 7856,
      "æŃ£å½ĵ": 7857,
      "Ġmeet": 7858,
      "Ġmultiple": 7859,
      ">>": 7860,
      "des": 7861,
      "éĩıåŃĲ": 7862,
      "ume": 7863,
      "rics": 7864,
      "ront": 7865,
      "æ¯«ç±³": 7866,
      "Ġhttps": 7867,
      "spec": 7868,
      "åĮĸåĴĮ": 7869,
      "Ġeff": 7870,
      "æ¯ıä¸ªäºº": 7871,
      "ä¾¿åĪ©": 7872,
      "ideo": 7873,
      "äºĳåįĹ": 7874,
      "Ġneeded": 7875,
      "issions": 7876,
      "69": 7877,
      "éĻª": 7878,
      "ç»´ä¿®": 7879,
      "æıĲåĩºçļĦ": 7880,
      "å«Į": 7881,
      "ä¸ºæł¸å¿ĥ": 7882,
      "ä¼ļåľ¨": 7883,
      "Ġla": 7884,
      "ç¾İèģĶåĤ¨": 7885,
      "å¹²æī°": 7886,
      "Ġevidence": 7887,
      "Ġhistor": 7888,
      "Ġresearchers": 7889,
      "etimes": 7890,
      "è¿ĩçļĦ": 7891,
      "éĴĻ": 7892,
      "Ġability": 7893,
      "ä¸Ľ": 7894,
      "éĥ¨çļĦ": 7895,
      "ä»£è°¢": 7896,
      "è¿ĳè§Ĩ": 7897,
      "ä¸ľåįĹ": 7898,
      "åĬłå¼ºå¯¹": 7899,
      "Ġgoing": 7900,
      "shape": 7901,
      "Ġcontinue": 7902,
      "ä¸¢": 7903,
      "iting": 7904,
      "æ³³": 7905,
      "arr": 7906,
      "Ġdataset": 7907,
      "asc": 7908,
      "èĢģå¹´": 7909,
      "èµ°åĩº": 7910,
      "append": 7911,
      "Ġmodels": 7912,
      "vation": 7913,
      "å¼ĢåĲ¯": 7914,
      "åĽ¢ä½ĵ": 7915,
      "æ½ľåĬĽ": 7916,
      "Ġprofess": 7917,
      "False": 7918,
      "Ġcut": 7919,
      "è¾Ł": 7920,
      "æľ¬æ¡Ī": 7921,
      "éĢļè¿ĩå¯¹": 7922,
      "Ġrather": 7923,
      "äºīåıĸ": 7924,
      "Ġhelps": 7925,
      "Ġwhole": 7926,
      "å®Ŀå®Ŀ": 7927,
      "å¼ķèµ·çļĦ": 7928,
      "æµªè´¹": 7929,
      "PT": 7930,
      "ç°": 7931,
      "æŃ§": 7932,
      "oml": 7933,
      "çĶµæ°Ķ": 7934,
      "éĻ¢éķ¿": 7935,
      "çĪµ": 7936,
      "åħħçĶµ": 7937,
      "æ¦ľ": 7938,
      "æħ¢æĢ§": 7939,
      "çĩĥçĥ§": 7940,
      "Ġdest": 7941,
      "æ²Ī": 7942,
      "rapy": 7943,
      "Ġquick": 7944,
      "æĺİæĺ¾çļĦ": 7945,
      "Ġbecame": 7946,
      "åĲķ": 7947,
      "åĪĨè§£": 7948,
      "amed": 7949,
      "ĠSouth": 7950,
      "åĢŁéī´": 7951,
      "ç¦ıå»º": 7952,
      "Ġmembers": 7953,
      "Ġ;": 7954,
      "ä¸Ģéĥ¨åĪĨ": 7955,
      "åį¢": 7956,
      "æıĲèµ·": 7957,
      "è®ºè¿°": 7958,
      "éĩįè¦ģçļĦæĺ¯": 7959,
      "è¡Įä¸ļçļĦ": 7960,
      "äº«æľī": 7961,
      "åı¹": 7962,
      "æĬĦ": 7963,
      "å¤ĦçļĦ": 7964,
      "æīĭæ³ķ": 7965,
      "åħ»æĪĲ": 7966,
      "Ġplants": 7967,
      "Ġmodern": 7968,
      "rast": 7969,
      "å¤§æ¦Ĥ": 7970,
      "çī²": 7971,
      "çĶ¨éĢĶ": 7972,
      "æĦģ": 7973,
      "åīįæıĲ": 7974,
      "çĽ®çļĦæĺ¯": 7975,
      "Ġ17": 7976,
      "åİŁåŃĲ": 7977,
      "ump": 7978,
      "éĤª": 7979,
      "è¿Ŀçº¦": 7980,
      "ä¹ĥèĩ³": 7981,
      "çĽĪåĪ©": 7982,
      "æ··åĩĿåľŁ": 7983,
      "lex": 7984,
      "ç±»çļĦ": 7985,
      "istance": 7986,
      "èº«ä¸Ĭ": 7987,
      "Ġuses": 7988,
      "æĵħ": 7989,
      "LE": 7990,
      "part": 7991,
      "ister": 7992,
      "Ġfall": 7993,
      "ä¸»æĮģ": 7994,
      "Ġintegr": 7995,
      "è½½ä½ĵ": 7996,
      "åĪĳæ³ķ": 7997,
      "51": 7998,
      "ä¸Ģå¤©": 7999,
      "å¯¹æİ¥": 8000,
      "asks": 8001,
      "æ°ĳèĲ¥": 8002,
      "æ°´çļĦ": 8003,
      "æĮĩåįĹ": 8004,
      "è¥¿åįĹ": 8005,
      "èĪŀè¹Ī": 8006,
      "ä¸įåı¯èĥ½": 8007,
      "æĻ¨": 8008,
      "éļıæĹ¶": 8009,
      "æ²³æµģ": 8010,
      "Ġsche": 8011,
      "Ġç¬¬ä¸Ģ": 8012,
      "å¼Ĭ": 8013,
      "çİĽ": 8014,
      "æĽ´æľī": 8015,
      "ç¡®ç«ĭ": 8016,
      "Ġfeatures": 8017,
      "å½°": 8018,
      "ç½©": 8019,
      "åĦ¿åŃĲ": 8020,
      "åģĩè®¾": 8021,
      "å¿½è§Ĩ": 8022,
      "åŃµåĮĸ": 8023,
      "MO": 8024,
      "Ġur": 8025,
      "çļĦä¸įåĲĮ": 8026,
      "éĢ¼": 8027,
      "Ġhouse": 8028,
      "çĤ¹åĩ»": 8029,
      "å½¢çĬ¶": 8030,
      "æĪ¿äº§": 8031,
      "astAPI": 8032,
      "Ġ}": 8033,
      "çĶľ": 8034,
      "Ġport": 8035,
      "åĮ»èį¯": 8036,
      "é¢Ĺç²Ĵ": 8037,
      "build": 8038,
      "ä¸ºä¸Ńå¿ĥ": 8039,
      "æĸ¹éĴĪ": 8040,
      "Ġonce": 8041,
      "åįķçĭ¬": 8042,
      "è§Ĥä¼Ĺ": 8043,
      "èİ±": 8044,
      "ç¼ºå°ĳ": 8045,
      "ç»ĦæĪĲéĥ¨åĪĨ": 8046,
      "éļĲæĤ£": 8047,
      "wh": 8048,
      "Ġfive": 8049,
      "å¦¥": 8050,
      "idx": 8051,
      "æľĢä½³": 8052,
      "æĽ´å¤§": 8053,
      "å¾Īå¥½çļĦ": 8054,
      "èĭıèģĶ": 8055,
      "Ġmeasure": 8056,
      "?\"": 8057,
      "æĺ¯ä¸ºäºĨ": 8058,
      "Ġsleep": 8059,
      "çĶŁèĤ²": 8060,
      "ä¸ĭåİ»": 8061,
      "istics": 8062,
      "çĨĶ": 8063,
      "88": 8064,
      "onstr": 8065,
      "ese": 8066,
      "Ġcru": 8067,
      "ç³Ĭ": 8068,
      "ä½İç¢³": 8069,
      "96": 8070,
      "Ġri": 8071,
      "å¯ĵ": 8072,
      "ä¸»è§Ĥ": 8073,
      "åĲİæľŁ": 8074,
      "åģ·": 8075,
      "acc": 8076,
      "Ġcannot": 8077,
      "ĠOne": 8078,
      "ç¯®": 8079,
      "Ġsubst": 8080,
      "åħ¹": 8081,
      "åį¿": 8082,
      "icial": 8083,
      "Ġlive": 8084,
      "è®ºåĿĽ": 8085,
      "çħ¤çĤŃ": 8086,
      "150": 8087,
      "è¿Ļé¡¹": 8088,
      "çŃīæĸ¹å¼ı": 8089,
      "Ġbecom": 8090,
      "å°ıäºİ": 8091,
      "è¥¿å®ī": 8092,
      "çĥŃçĤ¹": 8093,
      "åĴĮåĽ½å®¶": 8094,
      "æ°®": 8095,
      "ä¿Ŀåģ¥": 8096,
      "---": 8097,
      "åıĪæĺ¯": 8098,
      "03": 8099,
      "Ġä¸º": 8100,
      "åŃ¦æľŁ": 8101,
      "Ġmatter": 8102,
      "åĪ¶çļĦ": 8103,
      "éĥ¨ä»¶": 8104,
      "åĿĬ": 8105,
      "èī²çļĦ": 8106,
      "Ġflu": 8107,
      "çºº": 8108,
      "æĿ¥äºĨ": 8109,
      "æķĻèĤ²éĥ¨": 8110,
      "kserve": 8111,
      "overed": 8112,
      "Ġattention": 8113,
      "è¾ħå¯¼": 8114,
      "bol": 8115,
      "ged": 8116,
      "wise": 8117,
      "Ġä¸ŃåĽ½": 8118,
      "æĺ¯ä¸įæĺ¯": 8119,
      "æł¸ç®Ĺ": 8120,
      "project": 8121,
      "æº¶æ¶²": 8122,
      "åľ¨ä¸Ģä¸ª": 8123,
      "äººæ°ĳä»£è¡¨å¤§ä¼ļ": 8124,
      "ä¸įä»ħä»ħ": 8125,
      "Ġetc": 8126,
      "æ¸ĹéĢı": 8127,
      "Ġwid": 8128,
      "ä»ĸè¯´": 8129,
      "åīįåĲİ": 8130,
      "ç²¾åº¦": 8131,
      "çĶŁäº§ç»ıèĲ¥": 8132,
      "èµĭäºĪ": 8133,
      "Ġchalleng": 8134,
      "æ´»è·ĥ": 8135,
      "å®¹éĩı": 8136,
      "è§Ĩéĩİ": 8137,
      "åĬ©åĬĽ": 8138,
      "åĲĮæĹ¶ä¹Ł": 8139,
      "çŁ¥è¯ĨçļĦ": 8140,
      "çģ¾å®³": 8141,
      "éĶĲ": 8142,
      "çľĭè¿ĩ": 8143,
      "ç¼ºçĤ¹": 8144,
      "Ġtransform": 8145,
      "å¸¦æĿ¥äºĨ": 8146,
      "Ġoptions": 8147,
      "curity": 8148,
      "èĢ¶": 8149,
      "ä¸įéľĢè¦ģ": 8150,
      "ĠAI": 8151,
      "Ġ14": 8152,
      "æİ¥ç§į": 8153,
      "ç¦ħ": 8154,
      "å¤ĩæ¡Ī": 8155,
      "åı¯æĮģç»Ńåıĳå±ķ": 8156,
      "Ġoriginal": 8157,
      "Ġir": 8158,
      "enn": 8159,
      "itect": 8160,
      "ä¸İæŃ¤": 8161,
      "ä¸ĵçĶ¨": 8162,
      "åģļçļĦ": 8163,
      "èĢģäºº": 8164,
      "æŁĲä¸ª": 8165,
      "çªģåıĳ": 8166,
      "å¯»æ±Ĥ": 8167,
      "Ġæľ¬": 8168,
      "åŃ¦åĳĺ": 8169,
      "è¿ĻæĹ¶": 8170,
      "ĠSu": 8171,
      "ĠPr": 8172,
      "Ġentire": 8173,
      "Ġengine": 8174,
      "æĪĪ": 8175,
      "è¿ĺæ²¡æľī": 8176,
      "ĠGu": 8177,
      "å°½åı¯èĥ½": 8178,
      "åĩĿèģļ": 8179,
      "Ġharm": 8180,
      "æľįåĬ¡ä¸ļ": 8181,
      "åŃ£èĬĤ": 8182,
      "ç¤¼ä»ª": 8183,
      "ç¹ģèį£": 8184,
      "Ġtyping": 8185,
      "éĺĲè¿°": 8186,
      "åıĶ": 8187,
      "æĦıå¿Ĺ": 8188,
      "åıĺåĬ¨": 8189,
      "Ġsuff": 8190,
      "ç¢±": 8191,
      "æ³ķå¾ĭæ³ķè§Ħ": 8192,
      "ç»Īäºİ": 8193,
      "æĸ¯åĿ¦": 8194,
      "å½ķåıĸ": 8195,
      "ĠQu": 8196,
      "wargs": 8197,
      "itor": 8198,
      "æĢ¨": 8199,
      "åĮĸå·¥": 8200,
      "è®²è¯Ŀ": 8201,
      "ĠStud": 8202,
      "èĨ¨": 8203,
      "åĺ´": 8204,
      "èĽĭçĻ½è´¨": 8205,
      "59": 8206,
      "hib": 8207,
      "çļĦåħī": 8208,
      "info": 8209,
      "åĩºèµĦ": 8210,
      "æĿ¥åĪ°": 8211,
      "åĬłçĥŃ": 8212,
      "æ¯ĶèµĽ": 8213,
      "éĶħ": 8214,
      "æ¸ħåįķ": 8215,
      "ãĢįï¼Į": 8216,
      "æ°ĶåĢĻåıĺåĮĸ": 8217,
      "ä¸Ģå¸¦ä¸Ģè·¯": 8218,
      "xx": 8219,
      "ï¼ħ": 8220,
      "ä¸įå¦Ĥ": 8221,
      "éĿ¢è¯ķ": 8222,
      "ç»ĵç®Ĺ": 8223,
      "åŃ¦çĶŁåľ¨": 8224,
      "å±±è¥¿": 8225,
      "ä¾¿æĺ¯": 8226,
      "ĠJohn": 8227,
      "72": 8228,
      "MS": 8229,
      "Ġtell": 8230,
      "æľĢæĸ°": 8231,
      "æ·ĺ": 8232,
      "ude": 8233,
      "Ġstudent": 8234,
      "Ġprin": 8235,
      "èĶ¡": 8236,
      "02": 8237,
      "sub": 8238,
      "ret": 8239,
      "æıĲåıĸ": 8240,
      "Ġenh": 8241,
      "æĢĿæĥ³æĶ¿æ²»": 8242,
      "è´µå·ŀ": 8243,
      "éĢ¸": 8244,
      "æīĢç¤º": 8245,
      "ç©´": 8246,
      "ĠCoun": 8247,
      "æģĭ": 8248,
      "è¾ĥå¤§çļĦ": 8249,
      "çĶ³è¯·äºº": 8250,
      "å¤įæĿĤçļĦ": 8251,
      "Ġpriv": 8252,
      "54": 8253,
      "éķ¿æĹ¶éĹ´": 8254,
      "èº«å¿ĥ": 8255,
      "æ£ļ": 8256,
      "æĹ¶ä»£çļĦ": 8257,
      "Ġservice": 8258,
      "åįĵ": 8259,
      "Ġthough": 8260,
      "ä¿¡ä»°": 8261,
      "Ġ\"--": 8262,
      "ä¼łæŁĵ": 8263,
      "ç©¶ç«Ł": 8264,
      "åĭĺ": 8265,
      "è¾¹çķĮ": 8266,
      "Ġbuilt": 8267,
      "èľĤ": 8268,
      "å¥´": 8269,
      "aced": 8270,
      "illed": 8271,
      "Ġintrodu": 8272,
      "ç¨³å®ļæĢ§": 8273,
      "å¼Ģåħ³": 8274,
      "åĨħå¿ĥ": 8275,
      "Ġstop": 8276,
      "vert": 8277,
      "å¯¼å¸Ī": 8278,
      "çĭŃ": 8279,
      "Ġculture": 8280,
      "Ġprovided": 8281,
      "Ġå¯¹": 8282,
      "Ġisinstance": 8283,
      "åıįèĢĮ": 8284,
      "èĳ¬": 8285,
      "åĥ§": 8286,
      "Ġparts": 8287,
      "\"ï¼Į": 8288,
      "âĨ": 8289,
      "åıĽ": 8290,
      "æľīå¾Īå¤ļ": 8291,
      "æĢĴ": 8292,
      "åħ¶ä¸ŃçļĦ": 8293,
      "Ġlove": 8294,
      "ç»Ħä»¶": 8295,
      "äº¤å¾Ģ": 8296,
      "æĭħå¿ĥ": 8297,
      "Ġinstead": 8298,
      "Ġblack": 8299,
      "dim": 8300,
      "å·®åĪ«": 8301,
      "åĴĮç®¡çĲĨ": 8302,
      "ä¸Ĭè¯ī": 8303,
      "åĲĪçī©": 8304,
      "èģĬ": 8305,
      "å¸¸çĶ¨": 8306,
      "èĪŁ": 8307,
      "å±ĢéĻĲ": 8308,
      "åĪĿæľŁ": 8309,
      "Ġscience": 8310,
      "Ġbenefits": 8311,
      "ä»Ķç»Ĩ": 8312,
      "sing": 8313,
      "ä¸İåħ¶": 8314,
      "ä¸İåħ¶ä»ĸ": 8315,
      "èµĦè´¨": 8316,
      "istory": 8317,
      "éĿŀæ´²": 8318,
      "èħĬ": 8319,
      "æĤł": 8320,
      "çĮĽ": 8321,
      "ternal": 8322,
      "ä»¥ä¸ĭç®Ģç§°": 8323,
      "Ġagent": 8324,
      "å¹³æĸ¹ç±³": 8325,
      "Par": 8326,
      "ĠåĽĽ": 8327,
      "ä¸Ĭçº§": 8328,
      "æĥ§": 8329,
      "æľ¬åľ°": 8330,
      "lying": 8331,
      "ĠAut": 8332,
      "Ġconduct": 8333,
      "Ġservices": 8334,
      "cient": 8335,
      "sk": 8336,
      "é«ĺç«¯": 8337,
      "å¤©åľ°": 8338,
      "aged": 8339,
      "ript": 8340,
      "æ»ļ": 8341,
      "å¤´çĹĽ": 8342,
      "æĺ¾å¾Ĺ": 8343,
      "åį°è±¡": 8344,
      "å¤®è¡Į": 8345,
      "Ġshows": 8346,
      "content": 8347,
      "nn": 8348,
      "ä¸įä¹ħ": 8349,
      "åĲİç»Ń": 8350,
      "åħ¬æĸ¤": 8351,
      "å»ºéĢł": 8352,
      "å¸Ĥæ°ĳ": 8353,
      "raft": 8354,
      "æĦıå¤ĸ": 8355,
      "ç¥Ŀ": 8356,
      "åĽ½å®¶çº§": 8357,
      "63": 8358,
      "æľŁå¾ħ": 8359,
      "èº«è¾¹": 8360,
      "è¿ĳæľŁ": 8361,
      "å¤±ä¸ļ": 8362,
      "è¿Ļä¸ªéĹ®é¢ĺ": 8363,
      "ĠAmerica": 8364,
      "={": 8365,
      "è¬": 8366,
      "çļĦçĲĨè§£": 8367,
      "Ġtaken": 8368,
      "æľīæĿĥ": 8369,
      "ä¸ºä½ķ": 8370,
      "Ġbase": 8371,
      "èµļ": 8372,
      "Ġlif": 8373,
      "å°ıåĮº": 8374,
      "çľĭçľĭ": 8375,
      "åıĹå®³": 8376,
      "è®²è¿°": 8377,
      "parse": 8378,
      "çº·çº·": 8379,
      "âĶĢâĶĢâĶĢâĶĢâĶĢâĶĢâĶĢâĶĢ": 8380,
      "gar": 8381,
      "çļĦæķħäºĭ": 8382,
      "åĲĪéĩĳ": 8383,
      "ç«ĭè¶³": 8384,
      "Ġwhite": 8385,
      "æĶ¿çŃĸçļĦ": 8386,
      "æ°´å¹³çļĦ": 8387,
      "çł´äº§": 8388,
      "Ġscript": 8389,
      "Ġcolor": 8390,
      "Ġregard": 8391,
      "Ġautom": 8392,
      "ĠApp": 8393,
      "empt": 8394,
      "åĩłç§į": 8395,
      "æľºæŀĦçļĦ": 8396,
      "cohol": 8397,
      "53": 8398,
      "åľ¨è¿ĻéĩĮ": 8399,
      "å®ŀåľ¨": 8400,
      "Ġnames": 8401,
      "æįĲ": 8402,
      "chan": 8403,
      "æĢ»ä¹ĭ": 8404,
      "è¾ĥé«ĺçļĦ": 8405,
      "ĠBl": 8406,
      "Ġcla": 8407,
      "å²ģçļĦ": 8408,
      "TTP": 8409,
      "å¼ºå¤§": 8410,
      "Ġgreen": 8411,
      "AP": 8412,
      "Ġnormal": 8413,
      "ä¸ĭè·Į": 8414,
      "æľŁè´§": 8415,
      "Ġweek": 8416,
      "ç§ĳåŃ¦æĬĢæľ¯": 8417,
      "--------------------------------": 8418,
      "åŀĤçĽ´": 8419,
      "çļĦè®¤è¯Ĩ": 8420,
      "ä¸Ĭå¹´": 8421,
      "ĠChe": 8422,
      "å§Ĳ": 8423,
      "ç§ĳçĽ®": 8424,
      "æ¶Īæ¯Ĵ": 8425,
      "ç³ĸå°¿": 8426,
      "è¡Ķæİ¥": 8427,
      "Ġsite": 8428,
      "Ġcoun": 8429,
      "Ġreview": 8430,
      "çķı": 8431,
      "èĪ°": 8432,
      "æķ°æį®çļĦ": 8433,
      "phinx": 8434,
      "iation": 8435,
      "ze": 8436,
      "ç¤¾ä¿Ŀ": 8437,
      "éĴł": 8438,
      "éĺ²çģ«": 8439,
      "èĩªåĬ¨åĮĸ": 8440,
      "cs": 8441,
      "åħ¨å¹´": 8442,
      "æĮģæľī": 8443,
      "Ġunique": 8444,
      "èģĮä¸ļæķĻèĤ²": 8445,
      "åħ¬åħ±æľįåĬ¡": 8446,
      "Ġsafety": 8447,
      "Ġcirc": 8448,
      "ä½©": 8449,
      "ä¸ŃæīĢ": 8450,
      "æĬĽ": 8451,
      "æľºåºĬ": 8452,
      "ç»ıæµİåŃ¦": 8453,
      "çĹħçļĦ": 8454,
      "å¢ĥçķĮ": 8455,
      "ï¼ŁâĢĿ": 8456,
      "Ġ25": 8457,
      "åħĭæľį": 8458,
      "ç»ĺçĶ»": 8459,
      "Ġerror": 8460,
      "AG": 8461,
      "len": 8462,
      "ä¸ĺ": 8463,
      "ï¼Ĳ": 8464,
      "Ġbacter": 8465,
      "åİī": 8466,
      "å±ķè§Ī": 8467,
      "åħ¬åĳĬ": 8468,
      "une": 8469,
      "æłĩé¢ĺ": 8470,
      "åħ±å»º": 8471,
      "éĢīçĶ¨": 8472,
      "èģĮåĬ¡": 8473,
      "åłµ": 8474,
      "å°½å¿«": 8475,
      "çļĦä¸Ģé¡¹": 8476,
      "æ¼Ķè®²": 8477,
      "åķĨä¸ļéĵ¶è¡Į": 8478,
      "ä½ĽæķĻ": 8479,
      "ameter": 8480,
      "åĪ¶çº¦": 8481,
      "åĬłæĭ¿": 8482,
      "åĨħå¤ĸ": 8483,
      "çĥĤ": 8484,
      "æĢ»å±Ģ": 8485,
      "ç§ĳåŃ¦éĻ¢": 8486,
      "Ġground": 8487,
      "Ġblock": 8488,
      "Ġincreased": 8489,
      "Ġdemonstr": 8490,
      "ta": 8491,
      "ĠAust": 8492,
      "äºĮæ°§åĮĸ": 8493,
      "åŀĴ": 8494,
      "æĮĩä»¤": 8495,
      "åĮĹæĸ¹": 8496,
      "Ġsepar": 8497,
      "åĲĪä½ľç¤¾": 8498,
      "èĥĮæĻ¯ä¸ĭ": 8499,
      "åıĳéĢģ": 8500,
      "éĺģ": 8501,
      "oles": 8502,
      "éļ§": 8503,
      "å¹¶å°Ĩ": 8504,
      "Ġdeep": 8505,
      "emic": 8506,
      "çĪ·": 8507,
      "è®©åŃ©åŃĲ": 8508,
      "è´ŁåĢº": 8509,
      "Ġprevious": 8510,
      "ä¼°è®¡": 8511,
      "æīĵçł´": 8512,
      "2007": 8513,
      "åĪĿä¸Ń": 8514,
      "åľ°æĸ¹æĶ¿åºľ": 8515,
      "å¸ĿåĽ½": 8516,
      "Ġassess": 8517,
      "ĠWhile": 8518,
      "Ġparents": 8519,
      "lied": 8520,
      "uple": 8521,
      "ä¸įåıĹ": 8522,
      "åı¯çĶ¨": 8523,
      "æł¡éķ¿": 8524,
      "ĠFastAPI": 8525,
      "Ġfeed": 8526,
      "Ġemot": 8527,
      "Ġmedic": 8528,
      "Ġstandard": 8529,
      "å·¢": 8530,
      "ç«ĭåľº": 8531,
      "æĥ³åĪ°": 8532,
      "çº¿è·¯": 8533,
      "çĦ¦èĻĳ": 8534,
      "Ġcontinu": 8535,
      "åĲĪæ³ķæĿĥçĽĬ": 8536,
      "Ġeasy": 8537,
      "uff": 8538,
      "Ã©": 8539,
      "ench": 8540,
      "äººä¹ĭ": 8541,
      "çľĭæ³ķ": 8542,
      "æķĳæı´": 8543,
      "æīİå®ŀ": 8544,
      "è¯ŀçĶŁ": 8545,
      "æĿŃ": 8546,
      "Ġmoney": 8547,
      "amm": 8548,
      "èĦĬ": 8549,
      "åıĸåĨ³": 8550,
      "éĺ³åħī": 8551,
      "çĨĬ": 8552,
      "Ġdat": 8553,
      "Ġreally": 8554,
      "ached": 8555,
      "éļıåĲİ": 8556,
      "angchain": 8557,
      "ernel": 8558,
      "Ġcorrect": 8559,
      "call": 8560,
      "ĠãĢĬ": 8561,
      "çļĦç¬¬ä¸Ģ": 8562,
      "Ġmental": 8563,
      "è¿ĩäºİ": 8564,
      "åĪ©æģ¯": 8565,
      "å®īç½®": 8566,
      "æĶ¶è´¹": 8567,
      "è¿ĳä»£": 8568,
      "Ġtools": 8569,
      "89": 8570,
      "dis": 8571,
      "length": 8572,
      "Ġmessage": 8573,
      "çĶ¨æ°´": 8574,
      "æľĢåĪĿ": 8575,
      "æķ´æ²»": 8576,
      "å¸¦çĿĢ": 8577,
      "è±¡å¾ģ": 8578,
      "ç»ĨèıĮ": 8579,
      "Ġincreasing": 8580,
      "é¹¤": 8581,
      "é¬¼": 8582,
      "ãĢĤ(": 8583,
      "oman": 8584,
      "Ġitem": 8585,
      "Ġexamples": 8586,
      "éĢĤå®ľ": 8587,
      "åħ·ä½ĵçļĦ": 8588,
      "Ġphot": 8589,
      "Ġregion": 8590,
      "æĬ½è±¡": 8591,
      "Ġexpected": 8592,
      "Ġnetwork": 8593,
      "RO": 8594,
      "ufact": 8595,
      "Ġann": 8596,
      "å°±åľ¨": 8597,
      "æŁľ": 8598,
      "astic": 8599,
      "ccording": 8600,
      "Ġevents": 8601,
      "Ġthemselves": 8602,
      "å³»": 8603,
      "fil": 8604,
      "çļĦçĲĨè®º": 8605,
      "Ġtask": 8606,
      "äº§èĥ½": 8607,
      "æ¯Ľæ³½": 8608,
      "çļĦæķĪæŀľ": 8609,
      "æĺ¯æĪĳåĽ½": 8610,
      "åıĳçļĦ": 8611,
      "éĩįåºĨ": 8612,
      "éķ¿åº¦": 8613,
      "è¿ĺåľ¨": 8614,
      "è®ºè¯ģ": 8615,
      "pper": 8616,
      "è§Ĩè§Ĵ": 8617,
      "è£ħé¥°": 8618,
      "çĮ«": 8619,
      "Ġissue": 8620,
      "æĳĺè¦ģ": 8621,
      "icles": 8622,
      "çĶ¨çĶµ": 8623,
      "çŃīçļĦ": 8624,
      "æ¯ıæľĪ": 8625,
      "åĽ¾å½¢": 8626,
      "Ġmaterials": 8627,
      "source": 8628,
      "åİĮ": 8629,
      "æŃ£å¦Ĥ": 8630,
      "Ġdevice": 8631,
      "æĸĩåĮĸéģĹäº§": 8632,
      "åıĪæľī": 8633,
      "ä»½é¢Ŀ": 8634,
      "ç§¯æŀģæĢ§": 8635,
      "ç¬¬ä¸īæĸ¹": 8636,
      "äºļæ´²": 8637,
      "Ġregular": 8638,
      "iques": 8639,
      "Ġpositive": 8640,
      "çļĦåīįæıĲ": 8641,
      "æĺĤ": 8642,
      "Ġoil": 8643,
      "ä¸»æµģ": 8644,
      "img": 8645,
      "åħ¬å¼ı": 8646,
      "Ġge": 8647,
      "è®©æĪĳ": 8648,
      "çĽ´å¾Ħ": 8649,
      "ĠThat": 8650,
      "å¥¹çļĦ": 8651,
      "Ġcarbon": 8652,
      "Ġdesigned": 8653,
      "å¨±ä¹Ĳ": 8654,
      "èĩĤ": 8655,
      "éļĻ": 8656,
      "èĲ§": 8657,
      "å¼ºå¤§çļĦ": 8658,
      "æĶ¶èİ·": 8659,
      "å¸¦æľī": 8660,
      "çİ¯å¢ĥçļĦ": 8661,
      "ender": 8662,
      "æ¿Ģåħī": 8663,
      "04": 8664,
      "çªĦ": 8665,
      "è®¾è®¡çļĦ": 8666,
      "æııåĨĻ": 8667,
      "Ġpopular": 8668,
      "çĦĬæİ¥": 8669,
      "Ġtrue": 8670,
      "Ġreact": 8671,
      "é«ĺåİĭ": 8672,
      "éļ¶": 8673,
      "ä¸¤æ¬¡": 8674,
      "ults": 8675,
      "èĴĭ": 8676,
      "èĢĥèĻĳåĪ°": 8677,
      "åıĸåĨ³äºİ": 8678,
      "åĬĿ": 8679,
      "è¯µ": 8680,
      "åľ°åŁŁ": 8681,
      "ç®¡è¾ĸ": 8682,
      "å°ĨåĨĽ": 8683,
      "æ¯Ķéĩį": 8684,
      "èı²": 8685,
      "ĠVal": 8686,
      "å®Įæķ´çļĦ": 8687,
      "Ġtemperature": 8688,
      "åĪ°è¾¾": 8689,
      "abet": 8690,
      "å·²æĪĲä¸º": 8691,
      "lose": 8692,
      "ä¸Ģæł·çļĦ": 8693,
      "æħ¢æħ¢": 8694,
      "ING": 8695,
      "æ¢³çĲĨ": 8696,
      "åĪĨæ³Į": 8697,
      "Ġliving": 8698,
      "éĢļé£İ": 8699,
      "éľ¸": 8700,
      "æ¡ĳ": 8701,
      "fully": 8702,
      "Ġpolicy": 8703,
      "600": 8704,
      "73": 8705,
      "reen": 8706,
      "Ġfru": 8707,
      "çķª": 8708,
      "åİĭç¼©": 8709,
      "åĩºçİ°çļĦ": 8710,
      "Ġsoil": 8711,
      "Ġimages": 8712,
      "Ġdirectory": 8713,
      "Ġmeaning": 8714,
      "Ġign": 8715,
      "äº¤åıī": 8716,
      "Ġshape": 8717,
      "æĺ¥ç§ĭ": 8718,
      "ĠEarth": 8719,
      "fix": 8720,
      "çĶµç½ĳ": 8721,
      "å½¢å®¹": 8722,
      "ä¸¤èĢħ": 8723,
      "å®ŀéĻħæĥħåĨµ": 8724,
      "argument": 8725,
      "æĹ¢æľī": 8726,
      "Ty": 8727,
      "ram": 8728,
      "ä¸ªäººçļĦ": 8729,
      "åĿĳ": 8730,
      "å¹³éĿ¢": 8731,
      "æŀģç«¯": 8732,
      "ĠGe": 8733,
      "åłª": 8734,
      "è½¬åĮĸä¸º": 8735,
      "IV": 8736,
      "è¦ģæĬĬ": 8737,
      "Ġhab": 8738,
      "ç³»æķ°": 8739,
      "Ġdecl": 8740,
      "ĠWar": 8741,
      "åºĶçĶ¨äºİ": 8742,
      "æĽ²çº¿": 8743,
      "iot": 8744,
      "join": 8745,
      "Ġaverage": 8746,
      "åĩĮ": 8747,
      "æĪĲäºº": 8748,
      "ä¿¡å¿µ": 8749,
      "andb": 8750,
      "æķĻå¸ĪçļĦ": 8751,
      "çĽ¸åĲĮçļĦ": 8752,
      "Ġpublished": 8753,
      "ä¸Ģä»½": 8754,
      "åĪĹåħ¥": 8755,
      "çļĦä¸Ģéĥ¨åĪĨ": 8756,
      "çļĦéĩįè¦ģæĢ§": 8757,
      "è·Łè¸ª": 8758,
      "Ġdirectly": 8759,
      "Ġidentify": 8760,
      "pid": 8761,
      "rem": 8762,
      "åĽ½éĺ²": 8763,
      "åľ°è¯´": 8764,
      "æĥŁ": 8765,
      "utes": 8766,
      "umn": 8767,
      "åħļå»º": 8768,
      "çĶ»éĿ¢": 8769,
      "reng": 8770,
      "Ġthroughout": 8771,
      "Ġexpress": 8772,
      "æľºåĬ¨è½¦": 8773,
      "Ġsection": 8774,
      "æĮĩå®ļ": 8775,
      "åį³å°Ĩ": 8776,
      "åĨħå®¹çļĦ": 8777,
      "æİ¢æµĭ": 8778,
      "ç¹ģæ®ĸ": 8779,
      "mber": 8780,
      "å®ŀä¹ł": 8781,
      "åħ¨æ°ĳ": 8782,
      "æľĢå¥½çļĦ": 8783,
      "èĮİ": 8784,
      "åıĸä»£": 8785,
      "ĠDep": 8786,
      "çĽĳå¯Ł": 8787,
      "ensive": 8788,
      "æ±īè¯Ń": 8789,
      "éģĹåĿĢ": 8790,
      "Ġformat": 8791,
      "åħ¬åĬ¡åĳĺ": 8792,
      "å¥łå®ļ": 8793,
      "è«": 8794,
      "æİ©": 8795,
      "è¡Įä½¿": 8796,
      "å¹´éĹ´": 8797,
      "abric": 8798,
      "äº¤äºĴ": 8799,
      "èĭ±æĸĩ": 8800,
      "ç¿¼": 8801,
      "minist": 8802,
      "')": 8803,
      "çļĦçĶŁäº§": 8804,
      "reed": 8805,
      "ename": 8806,
      "å¸ĸ": 8807,
      "Ġlines": 8808,
      "æĽ´æį¢": 8809,
      "æĿĳåºĦ": 8810,
      "ç§ĺå¯Ĩ": 8811,
      "mission": 8812,
      "ties": 8813,
      "ĊĊĠĠĠĠĠĠĠĠĠĠĠ": 8814,
      "ä¹¾": 8815,
      "æŀ¯": 8816,
      "ĠGener": 8817,
      "è¡ĮæĶ¿éĥ¨éĹ¨": 8818,
      "ç¬Ķè®°": 8819,
      "éĢıè¿ĩ": 8820,
      "æī¶æĮģ": 8821,
      "éŁ©åĽ½": 8822,
      "æ¯Ľæ³½ä¸ľ": 8823,
      "order": 8824,
      "æĪĳåľ¨": 8825,
      "æľĢéĩįè¦ģçļĦ": 8826,
      "çŁ¥åĲį": 8827,
      "çªĳ": 8828,
      "åŁºæľ¬ä¸Ĭ": 8829,
      "èı©": 8830,
      "åŃĺåľ¨çĿĢ": 8831,
      "åĤ¨å¤ĩ": 8832,
      "86": 8833,
      "aff": 8834,
      "çļĦæľīæķĪ": 8835,
      "æĸĩä¹¦": 8836,
      "ç©Ĩ": 8837,
      "è¿ĺéľĢè¦ģ": 8838,
      "ç¦½": 8839,
      "ĠDes": 8840,
      "çĻ½èī²": 8841,
      "ä¸ĵä¸ļçļĦ": 8842,
      "åĤħ": 8843,
      "éĴ¢éĵģ": 8844,
      "Ġallows": 8845,
      "ä¸Ńåħ±ä¸Ńå¤®": 8846,
      "Se": 8847,
      "Ġtru": 8848,
      "å¹¶æľª": 8849,
      "keys": 8850,
      "æł¼å¼ı": 8851,
      "ĠDis": 8852,
      "æīįä¼ļ": 8853,
      "çģŃçģ«": 8854,
      "().": 8855,
      "çļĦæłĩåĩĨ": 8856,
      "çļĦä»·åĢ¼": 8857,
      "arv": 8858,
      "éĢļçĶ¨": 8859,
      "è®¾å®ļ": 8860,
      "çĹķ": 8861,
      "æĶ¶åĪ°": 8862,
      "Ġshown": 8863,
      "Ġproduce": 8864,
      "ä¼ĳæģ¯": 8865,
      "èĢķåľ°": 8866,
      "Ġanimals": 8867,
      "CE": 8868,
      "åĵĢ": 8869,
      "ç¥¸": 8870,
      "å¸Ĥåľºç»ıæµİ": 8871,
      "ä»ĬåĲİ": 8872,
      "ä¿®æŃ£": 8873,
      "æĻºèĥ½åĮĸ": 8874,
      "Ġsustain": 8875,
      "('": 8876,
      "lay": 8877,
      "äºĨä¸ŃåĽ½": 8878,
      "åĪĨæķ°": 8879,
      "çĶµæľº": 8880,
      "æĪ¿åŃĲ": 8881,
      "Ġpolitical": 8882,
      "é£ĺ": 8883,
      "Ġonline": 8884,
      "æłĩçļĦ": 8885,
      "Ġclos": 8886,
      "æ¢¦æĥ³": 8887,
      "Ġsafe": 8888,
      "bug": 8889,
      "ober": 8890,
      "atform": 8891,
      "é«ĵ": 8892,
      "çī©èµĦ": 8893,
      "èĭį": 8894,
      "èĦĨ": 8895,
      "Ġ[]": 8896,
      "æĶ¹éĿ©çļĦ": 8897,
      "éĨī": 8898,
      "Go": 8899,
      "Sh": 8900,
      "ä¸ªåĪ«": 8901,
      "åĵįåºĶ": 8902,
      "èĥĮåĲİ": 8903,
      "Ġitself": 8904,
      "Ġrecent": 8905,
      "ä¸Ĭå¸Ĥåħ¬åı¸": 8906,
      "Ġeconomic": 8907,
      "Ġlayer": 8908,
      "pack": 8909,
      "Ġfarm": 8910,
      "åıĳä½ľ": 8911,
      "æµ©": 8912,
      "Ġmechan": 8913,
      "ĠScience": 8914,
      "62": 8915,
      "urch": 8916,
      "ival": 8917,
      "ĠUse": 8918,
      "ä½ıå®ħ": 8919,
      "è½»æĿ¾": 8920,
      "Ġincludes": 8921,
      "å°ģå»º": 8922,
      "Ġmemory": 8923,
      "è¿ĶåĽŀ": 8924,
      "Ġsal": 8925,
      "å¼¦": 8926,
      "Ġdru": 8927,
      "åľ°éľĩ": 8928,
      "ä¹ĭä¸º": 8929,
      "oll": 8930,
      "osis": 8931,
      "do": 8932,
      "è¿Ļä¸¤ä¸ª": 8933,
      "å½ĵä»Ĭ": 8934,
      "ĠShe": 8935,
      "å¢ŀå¤§": 8936,
      "èĪĮ": 8937,
      "åĽŀæĬ¥": 8938,
      "é¢ĦèŃ¦": 8939,
      "æķĻåŃ¦ä¸Ń": 8940,
      "ç½ĳç»ľå®īåħ¨": 8941,
      "rown": 8942,
      "Ġgas": 8943,
      "èĥº": 8944,
      "èµ·äºĨ": 8945,
      "ournal": 8946,
      "åįĥä¸ĩ": 8947,
      "å¼ĺæī¬": 8948,
      "éĤĢè¯·": 8949,
      "async": 8950,
      "ä¹¦ä¸Ń": 8951,
      "umb": 8952,
      "æĬĢæľ¯åĴĮ": 8953,
      "soft": 8954,
      "Ġclient": 8955,
      "æ¿ĢçĥĪ": 8956,
      "Ġactually": 8957,
      "command": 8958,
      "çĶĺèĤĥ": 8959,
      "Type": 8960,
      "eration": 8961,
      "orage": 8962,
      "Ġcore": 8963,
      "æ°¯": 8964,
      "Ġhalf": 8965,
      "vere": 8966,
      "ç®¡éģĵ": 8967,
      "Ġsteps": 8968,
      "åºĶè¯¥æĺ¯": 8969,
      "Ġcaused": 8970,
      "61": 8971,
      "ä¸Ģçº¿": 8972,
      "å¸¸æĢģ": 8973,
      "æº¢": 8974,
      "2005": 8975,
      "2006": 8976,
      "å£°æĺİ": 8977,
      "é¸¿": 8978,
      "pip": 8979,
      "åĪĨåī²": 8980,
      "æ¸´": 8981,
      "agster": 8982,
      "ĠNorth": 8983,
      "ĠEm": 8984,
      "ä¸ľæĸ¹": 8985,
      "Ġselect": 8986,
      "ä¸įè®º": 8987,
      "Ġbal": 8988,
      "åı¯åĪĨä¸º": 8989,
      "åºĶåľ¨": 8990,
      "è¿Ľè¡ĮçļĦ": 8991,
      "å¾Īæľī": 8992,
      "çłĶç©¶ä¸Ńå¿ĥ": 8993,
      "çŃĸåĪĴ": 8994,
      "æ¹ĺ": 8995,
      "Ġdeveloping": 8996,
      "æĭįæĳĦ": 8997,
      "Ġfoods": 8998,
      "æ£Ģå¯ŁéĻ¢": 8999,
      "å½¼æŃ¤": 9000,
      "iet": 9001,
      "Ġever": 9002,
      "ivil": 9003,
      "å±ĤçļĦ": 9004,
      "åĬ³åĬ¨åĬĽ": 9005,
      "äººä»¬çļĦ": 9006,
      "SC": 9007,
      "oke": 9008,
      "äººèº«": 9009,
      "ä»£æĽ¿": 9010,
      "ift": 9011,
      "å¸¸åĬ¡": 9012,
      "æ¯Ķåĸ»": 9013,
      "ç¥ĸåĽ½": 9014,
      "Ġdoesn": 9015,
      "æĲŃå»º": 9016,
      "ä¸įåĩº": 9017,
      "ä¸įç¬¦åĲĪ": 9018,
      "itation": 9019,
      "éĶ¦": 9020,
      "å¢ĥå¤ĸ": 9021,
      "åĢŁæ¬¾": 9022,
      "ĊĠĠĠĠĠĠĠĠĠĠĠĠĠĠĠĠĠĠĠĠĠĠĠ": 9023,
      "Ġfamil": 9024,
      "éŀĭ": 9025,
      "ðŁļ¨ðŁļ¨ðŁļ¨ðŁļ¨": 9026,
      "iency": 9027,
      "erous": 9028,
      "æĪĳæĥ³": 9029,
      "å¦¨": 9030,
      "ä»İä¸Ń": 9031,
      "ĠAb": 9032,
      "ĠAfter": 9033,
      "verse": 9034,
      "ĠDr": 9035,
      "Ġrespect": 9036,
      "æĪĳåĽ½çļĦ": 9037,
      "ä»ªåĻ¨": 9038,
      "Ġreading": 9039,
      "Ġsat": 9040,
      "Ġwave": 9041,
      "ä»¥å¤ĸ": 9042,
      "å¹³ç¨³": 9043,
      "è¡¨è¿°": 9044,
      "æĶ¹æŃ£": 9045,
      "ĠMar": 9046,
      "æĭħå½ĵ": 9047,
      "åĬłæĭ¿å¤§": 9048,
      "hood": 9049,
      "Ġsix": 9050,
      "æµ¦": 9051,
      "å®¶äºº": 9052,
      "éĩįçļĦ": 9053,
      "æĶ¿åĬ¡": 9054,
      "åĻ¨æ¢°": 9055,
      "izes": 9056,
      "èµ°è¿Ľ": 9057,
      "ä»·åĢ¼çļĦ": 9058,
      "ä¾µçĬ¯": 9059,
      "ĠĠĠĠĠ": 9060,
      "å¼Ĺ": 9061,
      "ä¸Ĭæľī": 9062,
      "æ¸Ĭ": 9063,
      "æĦıåĽ¾": 9064,
      "æĽ´å¤§çļĦ": 9065,
      "çĪ¬": 9066,
      "æ±Łè¥¿": 9067,
      "éŃĶ": 9068,
      "Ġidea": 9069,
      "3000": 9070,
      "Data": 9071,
      "da": 9072,
      "gu": 9073,
      "Ġwarm": 9074,
      "åľ°è´¨": 9075,
      "åįķçº¯": 9076,
      "æ±¡æ°´": 9077,
      "é£ŀè¡Į": 9078,
      "Ġenvironmental": 9079,
      "Ġbasic": 9080,
      "74": 9081,
      "On": 9082,
      "çļĦæľºä¼ļ": 9083,
      "åį§": 9084,
      "æĭĺ": 9085,
      "å¤ļåªĴä½ĵ": 9086,
      "ï¼ļï¼Ī": 9087,
      "è¢ĸ": 9088,
      "æļĳ": 9089,
      "èĳĹåĲįçļĦ": 9090,
      "åºĵåŃĺ": 9091,
      "èįīæ¡Ī": 9092,
      "Ġaccur": 9093,
      "ox": 9094,
      "off": 9095,
      "åĮł": 9096,
      "å¯¹ç§°": 9097,
      "è¿ĩæ¸¡": 9098,
      "æĢ»ç»Ł": 9099,
      "è¾ĥå¤ļ": 9100,
      "åįĹæĸ¹": 9101,
      "é¾Ļå¤´": 9102,
      "æĪıåī§": 9103,
      "èĤºçĤİ": 9104,
      "æıŃç¤º": 9105,
      "ĠEnglish": 9106,
      "å·¥ä½ľèĢħ": 9107,
      "æķ´æĶ¹": 9108,
      "ĠRet": 9109,
      "è¿ľç¨ĭ": 9110,
      "æ¤İ": 9111,
      "éĢıæĺİ": 9112,
      "Ġminim": 9113,
      "Ġbreak": 9114,
      "isions": 9115,
      "æ²ĥ": 9116,
      "Ġlives": 9117,
      "æķ°é¢Ŀ": 9118,
      "æłĩçŃ¾": 9119,
      "ä¾ĽçĶµ": 9120,
      "åĮ»å¸Ī": 9121,
      "ĠGr": 9122,
      "æŁĲä¸Ģ": 9123,
      "ä¼¦çĲĨ": 9124,
      "71": 9125,
      "ï¼į": 9126,
      "Ġcopy": 9127,
      "çĲĨè´¢": 9128,
      "used": 9129,
      "ä¼ģä¸ļåľ¨": 9130,
      "åħ±è¯Ĩ": 9131,
      "ç¾İåŃ¦": 9132,
      "æĦŁåıĹåĪ°": 9133,
      "åĨįçĶŁ": 9134,
      "éļıæľº": 9135,
      "çº¢åĨĽ": 9136,
      "Ġupon": 9137,
      "Ġrunning": 9138,
      "uck": 9139,
      "Ġeth": 9140,
      "ç¬¬ä¹Ŀ": 9141,
      "æĹ¨åľ¨": 9142,
      "åĮ¹éħį": 9143,
      "By": 9144,
      "æİ¥çĿĢ": 9145,
      "Ġexam": 9146,
      "é¢ĨåħĪ": 9147,
      "æŁ¥çľĭ": 9148,
      "ç»ĨåĮĸ": 9149,
      "çĵ·": 9150,
      "Ġrefer": 9151,
      "çĭ¬çī¹çļĦ": 9152,
      "gener": 9153,
      "Ġutil": 9154,
      "Ġful": 9155,
      "ä¹ĭæĹ¥èµ·": 9156,
      "åĲĳä¸Ĭ": 9157,
      "æĮĩå¼ķ": 9158,
      "Ġcontact": 9159,
      "Ġconsist": 9160,
      "Ġextra": 9161,
      "ibrary": 9162,
      "atest": 9163,
      "åĮĸè§£": 9164,
      "ä½ĵçİ°åľ¨": 9165,
      "åīįè¿Ľ": 9166,
      "ulations": 9167,
      "çº¿ç¨ĭ": 9168,
      "äºĶä¸ª": 9169,
      "åıĪç§°": 9170,
      "ä¿¡æģ¯æĬĢæľ¯": 9171,
      "çĥŃçĪ±": 9172,
      "èĤ¡å¸Ĥ": 9173,
      "è§£åĨ³éĹ®é¢ĺ": 9174,
      "çĨĻ": 9175,
      "åı«åģļ": 9176,
      "Ġdetect": 9177,
      "Ġvirus": 9178,
      "pir": 9179,
      "åºŀ": 9180,
      "oura": 9181,
      "åıĳå±ķåĴĮ": 9182,
      "æĥħæĻ¯": 9183,
      "äºĮçº§": 9184,
      "æµģæĦŁ": 9185,
      "å®ĺåĳĺ": 9186,
      "æľīåħ³è§Ħå®ļ": 9187,
      "Ġtraditional": 9188,
      "Ġleading": 9189,
      "Ġanaly": 9190,
      "Ġindustry": 9191,
      "æľªæĪĲå¹´äºº": 9192,
      ")\"": 9193,
      "ming": 9194,
      "names": 9195,
      "Ġpip": 9196,
      "è¡ĮæĺŁ": 9197,
      "æ°ĳåĽ½": 9198,
      "å¸ĥç½®": 9199,
      "å¹²çĩ¥": 9200,
      "Ġterms": 9201,
      "æľµ": 9202,
      "ining": 9203,
      "æľīå®³": 9204,
      "éĢ¾": 9205,
      "è¯´è¯Ŀ": 9206,
      "Ġprogress": 9207,
      "åŀ«": 9208,
      "ĠMay": 9209,
      "çłĶç©¶äººåĳĺ": 9210,
      "åĩĨåĪĻ": 9211,
      "çĬ¬": 9212,
      "è¿½ç©¶": 9213,
      "å¸ķ": 9214,
      "itable": 9215,
      "Ġrev": 9216,
      "å¤ĸäº¤": 9217,
      "è°ĥåĬ¨": 9218,
      "åĽĽå¤§": 9219,
      "illi": 9220,
      "ä¸ĩçī©": 9221,
      "éľĢè¦ģçļĦ": 9222,
      "å±±æ°´": 9223,
      "æŀģä¸º": 9224,
      "elling": 9225,
      "æŃ¦åĻ¨": 9226,
      "Ġapplication": 9227,
      "================": 9228,
      "Ġmonths": 9229,
      "=[": 9230,
      "âĪ": 9231,
      "çļĦç»ĵæŀĦ": 9232,
      "çĶŁæķĪ": 9233,
      "èģª": 9234,
      "Ġyet": 9235,
      "ç¼ĸç¨ĭ": 9236,
      "æ³¨æĦıåĬĽ": 9237,
      "Ġrequires": 9238,
      "Ġguid": 9239,
      "ION": 9240,
      "MP": 9241,
      "uel": 9242,
      "åİ¦": 9243,
      "æĿ¥è®²": 9244,
      "Ġviol": 9245,
      "æĪĲåĬŁçļĦ": 9246,
      "Ġmovement": 9247,
      "Ġeye": 9248,
      "åµĮ": 9249,
      "ä¸ĢçĶŁ": 9250,
      "åı¯åľ¨": 9251,
      "ilos": 9252,
      "ĠTrans": 9253,
      "èģĶåĬ¨": 9254,
      "ç²¾åĬĽ": 9255,
      "å¹²é¢Ħ": 9256,
      "Ġtechniques": 9257,
      "æĳ©æĵ¦": 9258,
      "DS": 9259,
      "æĺ¯æĪĳä»¬": 9260,
      "çłĶè®¨": 9261,
      "Ġoffer": 9262,
      "è¤": 9263,
      "ä¸Ģæµģ": 9264,
      "ened": 9265,
      "ä¸įè¶ħè¿ĩ": 9266,
      "ä½ľæĪĺ": 9267,
      "Ġstreng": 9268,
      "å¼ºåĽ½": 9269,
      "Ġassert": 9270,
      "åİŁæĸĩ": 9271,
      "æŁĲæŁĲ": 9272,
      "æĵİ": 9273,
      "æ¯ķç«Ł": 9274,
      "Ġprograms": 9275,
      "Ġapplications": 9276,
      "Ġadditional": 9277,
      "èĢĢ": 9278,
      "åĴĮæĬĢæľ¯": 9279,
      "itute": 9280,
      "éĿ¢åīį": 9281,
      "çĤĴ": 9282,
      "unk": 9283,
      "ried": 9284,
      "Ġheat": 9285,
      "åŁİåĮº": 9286,
      "åĬ³åĬ¡": 9287,
      "å½Ĵçº³": 9288,
      "éŃħ": 9289,
      "é¡¾å®¢": 9290,
      "!\"": 9291,
      "120": 9292,
      "En": 9293,
      "Ġclose": 9294,
      "arily": 9295,
      "ĠCal": 9296,
      "äºĮæ¬¡": 9297,
      "åŁİå¸ĤçļĦ": 9298,
      "éĿĻèĦī": 9299,
      "å¡ĳéĢł": 9300,
      "çªĹåı£": 9301,
      "Ġtaking": 9302,
      "æĿł": 9303,
      "åĮĸçŁ³": 9304,
      "å¯Įæľī": 9305,
      "æĿĲæĸĻçļĦ": 9306,
      "è¯¸èĳĽ": 9307,
      "Ġliter": 9308,
      "èĨ¨èĥĢ": 9309,
      "OS": 9310,
      "np": 9311,
      "atives": 9312,
      "æ³Ĭ": 9313,
      "åĪĨå·¥": 9314,
      "çŃīå¾ħ": 9315,
      "Ġled": 9316,
      "æľįè£ħ": 9317,
      "éĤ£éĩĮ": 9318,
      "åºıåĪĹ": 9319,
      "Ġmanufact": 9320,
      "åħħåĪĨåĪ©çĶ¨": 9321,
      "Ġinstance": 9322,
      "çŃ¾ç½²": 9323,
      "Ġwritten": 9324,
      "è¿Ŀæ³ķè¡Įä¸º": 9325,
      "And": 9326,
      "Ġparticularly": 9327,
      "US": 9328,
      "Ġslow": 9329,
      "å¸ħ": 9330,
      "éĹ´æİ¥": 9331,
      "Ġ\"__": 9332,
      "åĻ¨å®ĺ": 9333,
      "è®©ä»ĸä»¬": 9334,
      "ĠYour": 9335,
      "Ġaccept": 9336,
      "åıĳå¸ĥçļĦ": 9337,
      "Ġwon": 9338,
      "Ġface": 9339,
      "æıĲéĹ®": 9340,
      "çłĶåĪ¶": 9341,
      "Ġæĺ¯": 9342,
      "çļĦæĶ¿æ²»": 9343,
      "ä¸įå®ľ": 9344,
      "ç«Ń": 9345,
      "äº§çī©": 9346,
      "Ġlength": 9347,
      "å½ĵä¸ĭ": 9348,
      "æŃ¤ç±»": 9349,
      "æĹ¥æľŁ": 9350,
      "éĴ©": 9351,
      "aches": 9352,
      "å¹¿è¥¿": 9353,
      "éĵ¾æİ¥": 9354,
      "è®¤è¯ĨåĪ°": 9355,
      "ä¹īåĬ¡æķĻèĤ²": 9356,
      "det": 9357,
      "Ġkserve": 9358,
      "Ġbar": 9359,
      "Ġaltern": 9360,
      "quest": 9361,
      "ç´§æĢ¥": 9362,
      "çĹĽèĭ¦": 9363,
      "ç½Ĺé©¬": 9364,
      "Ġinfect": 9365,
      "Ġvariety": 9366,
      "5000": 9367,
      "nection": 9368,
      "ses": 9369,
      "âĢĿï¼Ī": 9370,
      "å¾Ĺåĩº": 9371,
      "çħ®": 9372,
      "è¡ĮæĶ¿æľºåħ³": 9373,
      "èľľ": 9374,
      "é¥²æĸĻ": 9375,
      "local": 9376,
      "98": 9377,
      "ias": 9378,
      "och": 9379,
      "pare": 9380,
      "çļĦæĦıä¹ī": 9381,
      "ĠCO": 9382,
      "Ġsex": 9383,
      "ä¿ĥä½¿": 9384,
      "çĪĨçĤ¸": 9385,
      "è´¯å½»èĲ½å®ŀ": 9386,
      "Ġchemical": 9387,
      "MA": 9388,
      "tion": 9389,
      "çļĦéľĢè¦ģ": 9390,
      "çļĦæĦıæĢĿ": 9391,
      "Ġter": 9392,
      "äººçľĭè¿ĩ": 9393,
      "è¦ģçĤ¹": 9394,
      "æµ·åħ³": 9395,
      "çħ§é¡¾": 9396,
      "åĿĩåĮĢ": 9397,
      "Ġrelig": 9398,
      "ä¸įå¾Ĺä¸į": 9399,
      "åĪĨåĪ«ä¸º": 9400,
      "Ġlonger": 9401,
      "Ġcomplete": 9402,
      "Ġdamage": 9403,
      "\";": 9404,
      "mb": 9405,
      "ä¸Ģç¯ĩ": 9406,
      "äººäºº": 9407,
      "ä¸įæķ¢": 9408,
      "Ġtoken": 9409,
      "é«ĺè¾¾": 9410,
      "åĽ½å®¶åĴĮ": 9411,
      "å¹¿éĺĶ": 9412,
      "æĪĲä¸ºäºĨ": 9413,
      "åı¥åŃĲ": 9414,
      "æ¶²ä½ĵ": 9415,
      "Ġ40": 9416,
      "æĽ¹æĵį": 9417,
      "ä¸Ģå¼ł": 9418,
      "irit": 9419,
      "ç±»åĪ«": 9420,
      "æĶ¾æĿ¾": 9421,
      "è´Łèį·": 9422,
      "Ġindex": 9423,
      "800": 9424,
      "å¤¸": 9425,
      "åľ¨åħ¶": 9426,
      "Ġcred": 9427,
      "Ġfat": 9428,
      "åħ³éĹŃ": 9429,
      "åħļç»Ħç»ĩ": 9430,
      "ä¸»è¦ģåĮħæĭ¬": 9431,
      "æī¿åıĹ": 9432,
      "è®¾å¤ĩçļĦ": 9433,
      "rench": 9434,
      "Ġprotein": 9435,
      "rors": 9436,
      "Ġtable": 9437,
      "Ġtakes": 9438,
      "Ġtalk": 9439,
      "ç§įç§į": 9440,
      "çķ´": 9441,
      "åħ¥åŃ¦": 9442,
      "Ġaspect": 9443,
      "ä¸¤å¤§": 9444,
      "è¯ķåĽ¾": 9445,
      "çİ°åľ¨çļĦ": 9446,
      "\"],": 9447,
      "Ġsense": 9448,
      "åĨĢ": 9449,
      "äºĨå¯¹": 9450,
      "èĩŃ": 9451,
      "åĩºäºİ": 9452,
      "Ġstream": 9453,
      "è§Ħç«ł": 9454,
      "ĠCar": 9455,
      "æĹłéĻĲ": 9456,
      "ĠMon": 9457,
      "apan": 9458,
      "è¿Ŀè§Ħ": 9459,
      "çĶµåŃĲåķĨåĬ¡": 9460,
      "æľīåĪ©": 9461,
      "Ġmix": 9462,
      "æ°´åĪĨ": 9463,
      "èĭ¹": 9464,
      "é©°": 9465,
      "çİĭæľĿ": 9466,
      "ç§ĳåŃ¦çļĦ": 9467,
      "ronic": 9468,
      "å¼ķå¯¼åŃ¦çĶŁ": 9469,
      "ç±»åŀĭçļĦ": 9470,
      "map": 9471,
      "pi": 9472,
      "äººå¯¹": 9473,
      "Ġfig": 9474,
      "Ġms": 9475,
      "Ġmov": 9476,
      "å®¶éĩĮ": 9477,
      "äºĮèĢħ": 9478,
      "å¯¼ä½ĵ": 9479,
      "èĤ¡ä»·": 9480,
      "çīĪæĿĥ": 9481,
      "aily": 9482,
      "Ġcomputer": 9483,
      "Im": 9484,
      "fe": 9485,
      "kwargs": 9486,
      "å®ŀè®Ń": 9487,
      "Ġvia": 9488,
      "æĢģåĬ¿": 9489,
      "æĶ¿åºľçļĦ": 9490,
      "é¢ĳç¹ģ": 9491,
      "èģĮä¸ļçĹħ": 9492,
      "Ġdiagn": 9493,
      "èľĢ": 9494,
      "ä»Ħä»Ħ": 9495,
      "iddle": 9496,
      "é«ĺçŃīæķĻèĤ²": 9497,
      "Ġsources": 9498,
      "æłĵ": 9499,
      "Ġinj": 9500,
      "Ġroot": 9501,
      "Ġinvolved": 9502,
      "ography": 9503,
      "Ġfix": 9504,
      "Ġder": 9505,
      "ä½ĵç§¯": 9506,
      "æķĪåĬĽ": 9507,
      "Ġwebs": 9508,
      "æħ°": 9509,
      "è®¤ä¸ºæĺ¯": 9510,
      "avor": 9511,
      "å¨ĺ": 9512,
      "notated": 9513,
      "æĸ°æĹ¶ä»£ä¸ŃåĽ½çī¹èī²ç¤¾ä¼ļä¸»ä¹ī": 9514,
      "Ġcomponent": 9515,
      "CP": 9516,
      "De": 9517,
      "Ġï¼ī": 9518,
      "Ġcame": 9519,
      "ä¸Ńèį¯": 9520,
      "ä½ĵåĨħ": 9521,
      "æ¯ħ": 9522,
      "Ġdev": 9523,
      "æ³¨å°Ħ": 9524,
      "æ¸ħçĲĨ": 9525,
      "åį°åıĳ": 9526,
      "atasets": 9527,
      "æīĢè°ĵçļĦ": 9528,
      "Ġappropri": 9529,
      "level": 9530,
      "å¦¹": 9531,
      "Ġalmost": 9532,
      "è´£ä»¤": 9533,
      "æľªç»ı": 9534,
      "è¯įè¯Ń": 9535,
      "Ġobtain": 9536,
      "åİļçļĦ": 9537,
      "Ġcapt": 9538,
      "ĠResearch": 9539,
      "Ġcauses": 9540,
      "åİ¿çº§ä»¥ä¸Ĭ": 9541,
      "ä¸įè§ģ": 9542,
      "æĮº": 9543,
      "åī¥": 9544,
      "å¿ĥçģµ": 9545,
      "æºĥ": 9546,
      "ä¾¿äºİ": 9547,
      "æµģåĬ¨æĢ§": 9548,
      "cm": 9549,
      "rate": 9550,
      "æ³»": 9551,
      "Ġlen": 9552,
      "åīįéĿ¢": 9553,
      "istry": 9554,
      "çĽ´æĴŃ": 9555,
      "åĶ¤": 9556,
      "Ġemerg": 9557,
      "Ġsimply": 9558,
      "estern": 9559,
      "æłĸ": 9560,
      "ä¸ĭæ¸¸": 9561,
      "ç¬¼": 9562,
      "Ġgard": 9563,
      "æĦıæĦ¿": 9564,
      "çĸ¹": 9565,
      "ä»ĭè´¨": 9566,
      "æ¶µçĽĸ": 9567,
      "Ġanswer": 9568,
      "zure": 9569,
      "éĿ¶": 9570,
      "åĩºç§Ł": 9571,
      "å°ıåŀĭ": 9572,
      "ç»Ħå»º": 9573,
      "éħµ": 9574,
      "ä¹¦ç±į": 9575,
      "ç®¡çĲĨåĴĮ": 9576,
      "æľªèĥ½": 9577,
      "åĳĬçŁ¥": 9578,
      "åİĨåı²çļĦ": 9579,
      "èĻļåģĩ": 9580,
      "ä»ĭç»įäºĨ": 9581,
      "oader": 9582,
      "çººç»ĩ": 9583,
[...]
